0014
fff5
000f
000f
fffe
0002
fffc
000e
0003
ffed
ffed
0003
0014
0008
0004
ffea
0014
0013
ffee
fffc
ffff
000f
000f
fff9
0003
ffff
fff2
ffeb
ffec
fffb
000d
000e
fffe
fff2
ffff
000f
ffef
0008
fff9
fff6
fffe
fffa
fff4
ffff
000e
ffee
000f
0005
fff2
0007
fffa
0000
fff3
ffeb
0013
0003
0002
ffeb
ffef
fff2
000e
000c
ffee
0014
000a
0003
fff3
ffec
000d
fff6
000a
0009
0016
fff9
fffe
fffd
ffeb
0013
ffee
fffa
ffed
fffd
fff7
fff1
ffea
0007
0006
000a
000c
000d
0012
0014
ffef
0006
0010
0005
0009
0000
0009
ffea
ffed
000e
000e
0011
fffe
fffb
fffc
000d
ffef
000f
000f
fffd
fffc
0011
000f
fff0
0008
000e
0000
fffa
ffee
ffe9
ffe3
ffe6
fff5
ffe8
0007
ffef
ffed
fffc
0004
0004
fff9
ffe5
ffeb
ffde
0017
0003
fff6
ffe3
ffed
000d
0012
fff9
000d
fff3
ffe5
000d
fffe
ffec
fff0
0003
001a
fffc
fff9
fff1
ffec
fff1
0001
0013
ffeb
0004
0008
0006
fff9
000b
fff5
0012
ffef
0006
0004
0009
ffea
fff7
fff1
fffc
fff0
fff1
0007
0002
0009
0002
ffee
000d
0014
fff8
fff9
0013
000a
0006
ffec
fff9
fff8
ffef
fff3
000f
fff1
0012
fffa
000a
000c
0012
ffed
ffed
fffc
fff9
0011
fffe
0007
0014
ffed
ffee
000d
fffb
ffff
0006
ffff
fff1
000f
0009
fff9
0002
fff5
000b
fffb
fff6
0001
fffe
0007
ffea
000e
fff4
ffff
0006
0003
0014
0004
000d
000c
0013
fff4
fff0
fffc
fff3
000a
000f
fff8
0011
fff8
0005
ffef
fffa
ffec
fff9
000d
fff0
000b
ffea
ffea
fff8
ffef
0008
0015
fffd
ffed
fffb
ffff
fff6
ffea
fff6
fff3
fffe
000d
fff8
000d
fff3
0001
fff3
ffea
0012
fff2
ffec
000d
fffd
000b
000f
fff3
fffa
000a
0004
000d
000c
0010
fff4
fff7
ffff
fff8
0006
ffec
fff4
0016
fff5
fff5
fff3
000c
000c
fff2
0008
000f
0012
0005
ffeb
fffb
fffd
fffb
000c
fffd
fff8
fff4
ffec
fff7
000b
fff0
000b
ffe8
000f
0003
000f
fffd
ffed
fff1
0011
0004
000d
0001
0015
0009
0000
0010
fff7
0004
ffeb
fff5
ffe8
ffc9
ffe7
002f
0000
000e
000c
fffe
ffe8
ffeb
fff3
ffc1
0009
0044
fffa
ffe8
fffc
fff8
ffdc
ffe1
fff2
ffbb
fff2
0026
ffe3
fff0
ffdc
ffdd
ffe0
fff5
0005
ffc7
ffe7
0050
ffeb
ffd3
ffd5
ffe6
ffe4
ffcc
0003
ffc0
fff1
0037
ffe5
ffdc
ffce
001f
ffed
ffe5
ffe8
ff87
0007
0055
ffe3
fff0
ffcb
0005
fff2
ffab
fffd
ff84
ffd2
0045
ffdd
ffd1
ffd3
0020
fffe
ffe0
ffd5
ff9a
ffd6
003f
ffda
fff2
ffc5
ffd4
0026
ffff
fff5
ffd0
ffe6
fff9
fff7
fff1
ffbe
0006
0016
0009
ffd3
ffb5
ffde
0021
ffc8
ffd9
ffce
0010
ffda
003e
ffa7
ff90
ffb6
0005
ffe8
ffc3
ffcc
0002
ffd3
fff9
ffdb
ffa1
ffc0
001c
ffcf
ffdb
ffc6
ffdb
ffef
ffb3
ffe9
ffa0
ffdc
003c
fffe
ffe1
ffdd
0000
fff6
ffcf
0008
ffc4
ffd7
0032
0004
ffe6
fff7
ffe4
fffa
ffbb
fff9
ffa7
ffd5
0044
fffc
ffed
ffd2
fffb
fff6
ffc9
ffd8
ffc9
ffdf
0023
0002
ffdf
ffda
ffef
0003
ffe7
fffe
ffe5
ffe4
001d
ffd8
fffb
ffd1
fff4
000e
ffff
ffe6
ffd4
ffef
0037
fff6
fffc
ffeb
ffed
fffd
ffec
0013
0014
0000
000c
fffa
0014
ffea
fff2
fffe
fff9
000b
fff9
0013
0011
0009
0005
000e
0005
fff6
0000
0005
0000
0010
fff5
0001
fff7
0001
0015
0006
000c
0001
fffc
ffed
fff4
0016
000e
0011
000f
0015
0015
fff6
0009
ffeb
ffee
0006
0014
000d
000f
ffeb
0008
0003
0015
fff2
ffee
000b
0016
ffee
ffea
fffe
ffed
0000
000a
0008
fffe
0014
000f
ffec
001f
fff2
fff6
0008
ffe7
ffda
0004
fff8
ffec
ffdd
0008
fffb
fff4
0001
ffe4
fff3
0024
ffec
ffee
ffee
0004
0004
fff8
ffe4
ffda
000b
000e
fff6
0005
0007
ffd4
ffeb
ffcf
ffe6
ffb3
ffe8
003e
ffdd
fff7
ffe8
ffdb
fff8
ffe4
ffde
ff9c
fff1
004a
ffd8
ffeb
fffc
ffdf
ffdd
ffe5
ffaa
ff77
ffe6
004d
ffdb
ffc4
ffde
ff99
ffd4
fffd
ffa6
ff7d
ffad
0037
ffc2
ffaf
ffd9
ffa6
ffb9
fffc
ffe9
ff72
ffba
0068
ff9f
ff86
ffba
ffcd
ffbf
001b
000a
ff40
ffb3
0072
ffa4
ff74
ff78
ffb3
ffeb
0011
fff5
ff5d
ff85
0060
ffb7
ff80
ffa3
ffb2
0018
0006
ffe8
ff73
ff66
0043
ffb3
ff74
ff84
ff91
002a
000b
fffa
ff97
ff56
0044
ffcf
ff83
ff92
ff6e
0033
001a
ffe7
ff87
ffab
0042
ffc4
ff63
ff8f
ffa6
0034
0025
ffcb
ff8c
fff5
0037
ffb6
ff71
ffa7
ff8f
fffa
fffd
ffcf
ffa4
0002
002c
ffd7
ff9b
ff91
ff85
fff5
ffe6
ffc0
ff5f
ffee
0047
ffea
ffd4
ffa1
ffb1
ffdc
ffc4
ffde
ff8b
ffff
003d
ffd5
ff8e
ffc5
ff97
ffdb
ffcd
ffdc
ffaf
ffe2
0041
ffdf
ffab
ffcb
ff94
ffd8
ffd6
ffca
ffa3
ffce
0047
fff9
ff93
ffc9
ffd8
ffe5
ffbc
ffcd
ffde
fff0
005f
fff6
ffcb
ffe2
ffcf
ffd4
fff4
ffcb
ff9e
ffd3
0034
fff3
ffc4
0000
fffe
ffd3
000b
ffdd
ffda
ffb2
fff4
fff6
ffd6
0001
ffea
ffe8
0004
ffe6
fff7
ffdd
ffed
fff3
ffeb
fffa
0000
0003
000f
fffb
fff6
fff5
fff8
fff6
0001
ffee
0014
fff4
0004
0000
fff7
ffec
0016
0001
fffc
ffef
0014
fff4
0011
0014
fff4
0006
0002
fff1
0016
ffec
0001
ffeb
ffec
0006
fffa
0015
fffb
ffed
0001
ffee
fff0
000c
ffe8
ffe4
ffe7
fffb
fffe
0007
fff9
fff9
0016
0002
ffd7
ffd1
ffe2
fff1
001d
ffe4
ffde
ffd3
ffde
ffe8
ffcc
fff0
ffdd
0005
0013
ffe6
ffd2
ffc6
ffc6
ffe4
fff2
002e
ffcf
ffec
002b
ffde
ffbc
ffea
ffd2
ffe5
ffdb
0021
ffba
ffcc
002d
ffd6
ffbb
ffd5
ffbf
ffc0
0004
002e
ffba
ffab
003a
ffad
ffa3
ffde
ffd8
ffa8
001f
001c
ff8e
ffbe
0034
ff9d
ffbb
ffd5
ffdb
ffcf
002f
001e
ff65
ffbd
0021
ff91
ffba
ffa1
ffda
ff98
0040
000a
ff65
ffec
002e
ff81
ffae
ff75
ffe1
ffa2
004c
0037
ff61
ffd5
0023
ff78
ffbf
ff56
ffd5
ffa8
0050
0044
ff39
ffd9
0023
ffa0
ff97
ff49
ffdf
ffe6
0032
0039
ff47
ffd0
0023
ff91
ffc3
ff58
fff8
fff3
002a
0047
ff7a
ffe7
002a
ff8d
ff9e
ff50
ffd4
fff0
0013
0022
ff84
ffff
003a
ff8d
ffbc
ff3a
ffef
0000
0021
0038
ff94
fff4
0020
ffa6
ffbd
ff5b
ffe7
ffc1
0000
002e
ffb5
fffe
000d
ffa6
ffa5
ff6d
ffb2
ffb6
ffe7
001a
ffa8
0034
0040
ffd2
ffe2
ffca
ffb0
ffb6
ffc8
0005
ffe1
000d
003c
ffbe
ffb8
ff88
ffb4
ffa2
ffd6
002d
ffe5
0023
0037
ffce
ffbe
ff95
ffa9
ffc0
ffc8
ffe5
0015
002b
0049
ffb5
ffef
ffb3
ffbe
ffa6
ffc1
ff91
0007
0025
0035
ffe2
fff1
ffae
ffc9
ff96
ff8c
ff9b
ffe5
ffe6
005d
fff8
001a
ffc4
ffd5
ff96
ffec
ffcd
ffd7
fff7
0024
fff8
fff0
ffd6
fff2
ffe4
000a
ffec
ffcf
0010
ffde
0012
fff2
0000
fff9
ffcf
ffea
fff1
ffee
0006
0027
ffeb
ffd3
0011
0000
fff6
0012
0003
fff4
fff4
fff9
0009
0011
0016
0003
fff2
0016
ffef
fffa
0003
fff0
0004
0008
0002
fffd
fff7
ffdd
0010
fff3
fff7
fff9
fff5
000f
fff3
ffe5
0028
ffcd
000c
ffed
ffe2
ffcc
0001
fff7
ffed
fffc
fffd
fff1
003d
ffda
ffdd
0004
001d
ffca
ffc9
ffd1
fff8
ffc4
002a
002e
ffa0
fffc
fff5
ffa0
ffef
ffa3
0013
000a
005a
fff1
ffb1
0014
ffb7
ff91
ffdc
ffa8
ffe9
0032
0034
ffdb
ffc2
0003
ffae
ffa9
ffda
ffe7
ffce
0014
0038
ffda
ffc2
0017
ff7b
ffcd
ffa6
ffdf
ffd6
0021
002e
ffbc
ffa6
fffe
ff66
fffa
ff78
ffe8
ffdb
0042
0022
ffa0
ffc3
0000
ff6b
fff1
ff44
fff1
ffeb
001d
003d
ff89
ffd9
000a
ff5c
fffe
ff85
ffef
ffe2
0042
002d
ff9f
ffe4
ffeb
ff69
fff6
ff91
ffdf
fff3
002e
002f
ffab
ffdf
ffeb
ff8c
0007
ff9e
fff7
0010
0020
003b
ffbc
ffd6
ffde
ff7c
000d
ffaa
ffdb
001b
0022
001d
ffa6
ffd7
ffef
ff97
0030
ff93
0009
0007
0029
0023
ffbf
0005
ffe9
ff8b
0010
ff84
fffa
fffb
0018
0031
ffba
001a
0011
ff84
0020
ff71
0007
ffdd
0008
0009
ffda
0019
0028
ff72
fff7
ff83
ffe5
ffef
fff8
0019
ffd1
000d
0014
ff6b
fffb
ff81
ffed
0013
ffe2
fffa
0017
0017
002a
ff80
fffb
ff8f
fff7
0014
ffd5
ffe5
002b
ffe6
0033
ff8f
0008
ff9b
ffcf
0023
ffb2
ffca
0031
000d
002c
ffc0
ffed
ff47
fff7
fff9
ffa8
ffce
0035
001e
0056
ffad
ffcf
ff5b
ffcc
fff9
ff8e
ff63
0029
002b
003d
ffa0
ffdd
ff91
ffc9
ffb2
ffa7
ff7d
0027
0031
fffb
ffd3
fffa
ffc4
ffd0
ffaa
ffe1
ffeb
ffeb
0028
0004
ffdc
0016
ffc4
ffd9
ffbd
ffdc
000a
ffdb
0024
0008
ffec
0011
ffef
ffeb
ffd9
fffa
fff5
ffdd
ffdb
0027
ffec
0016
fff5
ffeb
ffeb
0001
ffec
fff6
fffc
fff2
fffa
ffff
fffc
0014
0003
0006
fff4
0014
ffec
ffef
fff0
0001
0015
ffed
0020
000e
0000
ffe7
ffdc
fffe
ffe4
ffd0
fffe
fffc
0023
fff0
0021
fff2
ffbe
ffc0
0002
ffbc
ffc5
ffa6
002b
fff6
003f
0017
ff95
0014
ffb9
ff95
ffbe
ffad
000b
0022
005a
0024
ffa3
ffc8
0013
ff94
ffba
ffd2
000d
000b
0044
ffff
ffb5
ffe9
0005
ffc5
ff5e
ffed
ffcf
001f
0027
fff9
ffdc
ffef
fffd
fff3
ff91
ffe0
ffa9
000d
0025
ffec
ffec
fff2
0015
ffd8
ff91
fffe
ffc5
0014
0019
fff7
fff4
fff3
fff5
ffdc
ffaf
0003
ffcc
0034
0016
ffed
fffd
fffc
ffdc
ffdf
ffde
fffd
ffc9
0018
002f
ffde
000c
ffa8
ffc9
0010
fffb
0000
ffec
003e
0012
ffda
fff7
ffe0
ffc2
0018
fff4
0021
fff8
0033
000d
ffcf
fff2
ffdb
ffb3
0022
fff2
0025
ffea
0018
0014
ffeb
ffed
fff2
ffba
0019
ffd7
001e
fffe
0033
0019
fff1
ffe5
fff0
ffaa
0021
ffcf
0003
fff2
0029
0013
0002
0002
ffe4
ffaf
0021
ff95
0034
ffd6
0036
0011
000d
0021
000a
ff9d
0025
ffa5
0011
fff1
0001
ffed
000f
0017
0016
ff9e
0001
ffa9
0004
000b
0001
000f
0007
0011
002e
ff7d
000d
ffbb
0006
0022
fffe
ffd2
0015
0028
0033
ff58
0007
ffa2
fff4
0019
ffe3
ffc3
0011
0006
001a
ff84
ffec
ffa6
ffe4
0032
ffe4
ffac
0029
001c
001a
ff86
ffeb
ff5e
ffc8
0026
ffa2
ffa4
0065
0029
003d
ff7d
ffbc
ff41
ff99
ffea
ff96
ff8a
0019
0048
002f
ffa1
ffe4
ff82
ff5b
ff73
ffde
ff99
ffed
0064
0004
ffa4
0027
ff8f
ffa1
ffd1
ffc6
ffca
ffba
004a
fffb
ffe9
ffed
ffee
ffcb
fff7
ffea
fffe
fff7
fffc
001d
fff5
ffdb
ffe4
fff0
fff5
fff7
ffef
0007
000e
0003
fff4
000a
000f
0008
ffe3
ffe2
0007
ffe7
fff1
000c
0003
ffd5
ffe5
ffdf
ffcd
0002
0004
ffdd
fff9
ffe0
0029
ffb0
ffc8
ffcd
0002
fffc
003d
ffd0
ff89
ffc6
0031
ffaa
ffcb
ffba
0015
0026
0025
0018
ffa1
fffa
fffc
ffbc
ff83
ffd9
fff2
000b
0038
0016
ffe1
ffd9
000f
ffdf
ff6d
fff2
ffe9
002d
0023
0000
ffd0
ffd5
0029
ffd6
ff80
fffb
ffba
000a
000f
0005
ffe5
fff8
0025
ffe6
ffab
ffd2
ffb6
0025
000a
fffd
0006
fff1
0038
ffff
ffb1
ffbd
ffaa
0023
002f
fffb
fff9
ffe6
001b
fff8
fff3
fff8
ffce
0010
001f
ffd6
000b
ffd8
0019
fff7
ffe7
fff2
ffe0
0006
0017
ffcf
0008
ffcd
0021
0000
001a
fff5
ffe3
0009
0014
ffb6
0002
ffe3
fffb
0016
0008
0018
ffda
0008
0016
ffb7
ffff
ffdd
ffee
0004
0035
0017
ffe7
000a
0023
ff98
fffa
ffd7
ffe1
0006
0033
0003
ffd3
001e
001c
ff9e
fff3
ffe2
ffe5
0019
0029
001f
ffad
0017
001e
ffb0
fff5
ffd9
ffe5
001b
003a
002a
ffc8
fffa
0017
ffc0
0006
ffed
ffe8
0010
0023
0035
ffea
000f
0005
ffcf
0018
ffda
ffe9
fff9
001a
0017
ffe5
fffc
fffb
ffe4
0015
ffe8
ffdc
000b
0007
000e
0002
fff6
fffb
ffe3
002b
fffd
ffdd
0018
fffb
002e
fffe
ffe7
ffde
0001
0010
ffed
fffa
0007
ffc9
002c
0004
ffdc
ffdf
0031
001f
0005
ffdc
fff9
ffb7
fff0
0004
ff8f
ffad
0049
0034
001f
ff9d
fff9
ff76
ff97
fff0
ff6f
ff9a
0014
0069
0000
ff7b
ffe9
ff78
ff3a
ff46
ffa2
ff6f
ffe8
0062
ffdf
ffa0
0026
ffac
ff7a
ffb6
ffc3
ffd1
0011
0043
ffeb
ffab
000b
ffa7
ffd0
fff6
ffe8
0002
ffde
0026
0010
ffec
ffe2
ffd2
000c
000b
ffef
fff9
fff2
0000
0007
fffd
fff8
ffe5
ffce
ffea
ffc7
0027
ffe3
ffdb
000c
0017
ffcc
ffb8
ffd5
ffcd
0008
ffd1
ffd3
fff5
ffd5
0032
ffc1
ffba
ffc7
ffcc
0005
0012
ffd3
ff7e
ffb2
004e
ffac
ffb3
ff97
0004
0042
0047
0020
ff6a
fff3
001f
ffe9
ff72
ffee
ffd3
0011
0046
0024
ffb2
ffce
0025
ffde
ff6d
0000
ffbf
001c
0027
0000
fff9
ffbe
002e
fffd
ffb1
ffdc
ffc6
0012
001c
fff5
ffff
ffe8
0031
ffeb
ffaf
ffda
ff8c
fffb
0003
fff8
0011
ffd5
001f
0013
ffde
fff1
ffbe
fffc
000e
fffd
0010
ffe8
003a
fff8
fff6
fff4
ffc1
0003
0001
ffd3
000c
ffce
0029
fffd
ffe8
fff7
ffc5
0009
0002
ffbd
000b
ffef
0036
ffeb
0011
ffff
ffd1
000b
002b
ffa6
000f
ffd4
0017
ffef
000e
000f
ffe6
0007
0019
ffac
fffe
ffdc
0009
fffd
0049
0008
ffcb
0004
0019
ffa6
ffff
ffd0
0004
ffee
0065
0025
ffc1
fffe
0029
ff8a
ffeb
ffe4
ffff
fffe
0066
0030
ffd7
fffe
000f
ffa2
000a
ffd1
0014
0011
004e
0028
ffdb
ffdb
0016
ffb3
0014
ffbe
002c
fffb
0041
0023
ffcf
ffea
000a
ffd3
000f
ffcc
002c
000d
0010
002a
ffff
fffa
0005
ffe5
000c
ffab
001a
0000
0002
0015
fffd
ffe7
0005
fff1
0014
ffd0
001e
0008
0004
ffff
fffc
fffa
ffee
fffa
0014
ffea
fff5
fffd
fff8
0022
ffe8
0002
ffd1
0013
0030
ffc7
fff5
0009
ffc5
000d
ffc2
ffad
ffb2
0035
0049
ffc2
ffd7
0033
ff8d
ffd1
ff96
ff61
ff88
000f
0066
ffec
ffa8
0016
ff73
ff66
ff5f
ffbc
ff87
ffdc
0091
ffea
ffa4
ffea
ff80
ff6b
ffbe
ffa8
ffe5
000f
0038
fffb
ffae
fffa
ff94
ffd7
ffb6
ffde
ffea
ffa8
0015
ffee
ffec
ffe1
ffe5
0014
ffec
ffec
ffda
ffe5
0007
0001
ffde
ffeb
ffcd
ffea
ffd1
001e
ffe4
ffd9
ffd9
0010
0019
ffc7
ffc5
0006
ffd3
fffe
ffe8
fff7
ffcf
ffd1
0021
ff9d
ffad
ffef
ffe5
fffb
0022
fff1
ff82
ff9f
005d
fffa
ff8d
ffa3
ffe4
0045
002c
fffc
ff5f
ffe1
0038
ffdf
ffa0
ffde
ffc7
002e
002e
0000
ffc1
ffe1
002b
ffff
ffa8
fffd
ffb3
0024
0016
fffb
ffe7
ffc2
0039
0013
ffd6
ffdc
ffc0
0018
0006
fff0
ffe6
ffe5
004a
0020
ffcc
ffef
ffc5
001d
0010
ffcd
0009
ffe8
003e
0008
ffe2
fffd
ff9e
0021
0005
fff4
001b
ffd3
0019
001d
ffea
0015
ffcf
001f
001d
ffd9
0020
ffd0
0033
001c
ffde
fff3
ffd4
000a
fff8
ffe9
001b
ffe8
0043
0004
fff3
001c
fffd
0014
0003
ffcf
0015
ffdd
0030
0010
fffd
0011
0007
0009
0011
ffb5
fffb
ffe9
0019
0019
0024
0018
0002
0016
0029
ff98
ffd6
ffd3
0021
fff1
002b
0022
000c
0010
0025
ffa8
ffdc
ffc2
0033
ffd7
0034
003e
ffe4
000e
0024
ffa9
ffd3
ffbb
003f
000d
0027
004e
fff4
fff2
0015
ffcb
ffdd
ff97
0036
fff2
0009
0037
ffeb
fff6
0026
fff1
0008
ff7e
0039
0004
fffa
000f
fff4
0001
0016
ffe8
0013
ffaa
0011
000d
fff4
001b
ffe7
0000
001e
fff2
0023
ffa7
001c
0019
ffef
0017
ffe3
fffb
000e
fffa
002c
ffbf
fff2
0021
ffec
0012
ffba
ffec
fff6
fff1
0026
ffc0
0007
002f
ffe1
0037
ff84
ffd9
ff9f
fff9
005c
ff92
fffa
0012
ffb4
ffdd
ff55
ff56
ff35
ffe7
00a2
ff83
ff9c
0030
ff9d
ff33
ff69
ff3d
ff6e
ffdb
0095
ff6f
ff77
fff6
ff81
ff5f
ffc6
ffaf
ffe4
ffe2
0044
ffb9
ff9c
0017
ff8d
ffcb
ffd8
ffec
ffff
ffd0
0023
ffbe
ffdb
003e
ffcd
ffe7
fffc
ffeb
ffef
fff9
ffe7
ffeb
0021
fff4
ffd7
0005
ffdd
ffc6
fff6
ffe6
ffd1
ffe6
002d
ffe3
ffdf
0009
fff4
ffe0
fff3
ffcc
ffbf
ffe0
002d
ffc1
ff98
ffec
fff0
001f
0014
ffa5
ff67
ffbb
004e
fff7
ffa1
ffc8
fff3
001f
005d
ffcf
ff8d
fff8
003f
fff8
ffae
fff3
ffc0
0048
001c
fff1
ffbd
ffca
0034
0019
ffe8
ffcd
ffbe
fffa
0022
ffd4
ffe5
ffd7
000e
0021
000a
fff1
ffd1
fffd
0022
ffe2
fff9
ffe3
001a
0025
fff0
ffef
ffd8
ffe7
ffe7
fff5
0018
ffec
0000
0014
fff9
fffb
ffb2
0022
ffdb
0007
001d
ffe9
000f
0021
0003
0017
ffdd
0019
ffd2
ffeb
0019
ffe1
fffc
0014
0011
ffe6
ffe9
0010
ffb9
ffe4
003b
ffd6
0030
002b
fff6
0019
ffe7
000a
ffc4
fff6
0026
fff0
002d
0004
0010
0017
0017
000f
ffed
ffd9
0003
ffc7
001a
0007
0002
0003
004a
0012
001d
ff72
ffc8
ffe1
0043
ffd4
000f
fff9
005a
0008
0041
ff88
ffc8
ff9f
0034
ffc1
0011
0021
002c
0010
0020
ffe7
ffa4
ffa2
0043
ffc9
ffea
002f
fffb
001d
001b
ffef
ffca
ff87
004c
ffe9
ffe6
002c
fff7
000d
0015
ffee
ffc7
ff87
002c
0006
0009
0039
ffc8
000c
0024
fffc
fff4
ff87
0033
0019
ffec
0015
ffb7
0002
0023
fff7
0002
ffc7
0014
000f
fff7
0003
ffb9
ffec
0025
fff0
002e
ffd1
0021
0023
ffea
000d
ffab
ffee
002a
fff5
002b
ffb6
0002
0012
ffc4
003c
ff78
ffd9
ffc3
ffdd
007a
ffc0
ffe3
001d
ffa4
0022
ff63
ff4f
fefb
ff8c
00c7
ff75
ff9e
0007
ff7e
ff46
ff4e
ff44
ff7c
ffa4
00db
ff3b
ff89
ffd6
ff70
ff56
ffb5
ffcc
ffc2
ffa5
006e
ff72
ffdc
002f
ff8f
ffe5
ffd2
ffc4
fff8
ffcb
0023
ffd0
0012
ffed
ffc5
fff9
ffe0
ffe1
fff0
ffea
ffeb
ffec
002d
fffc
fff0
fff4
0020
ffed
ffd3
ffcd
ffee
fffb
002b
ffdb
ffd8
000b
ffee
fff8
000f
ffd2
ffce
ffd0
003c
ffb1
ff77
0002
ffda
001c
005b
ffb9
ff68
ffbd
005b
ffc0
ffc1
ffdb
ffc9
000b
001d
ffc9
ffd4
ffd5
0050
0024
ffb4
fffd
ffb2
001c
0007
ffd0
ffd0
ffd2
0038
0009
0003
ffeb
ffa0
0003
fffa
ffd5
fffd
ffde
fffe
0010
0027
ffeb
ffc0
fff2
ffd3
fffe
0023
0000
001a
0024
000d
ffe3
ffe6
ffd6
ffb8
fff4
0028
ffff
ffe9
0039
0013
fff6
ffcd
ffd6
ffb0
0014
0039
ffe1
000a
003c
0018
fff0
ffd7
ffd6
ff8b
0003
002e
000c
0006
0038
0021
fff5
fff9
ffdc
ff9b
0012
0041
ffdd
fffd
0027
0013
000c
ffe1
ffd2
ffb0
0026
003c
ffd6
fffb
001b
001a
0020
001e
ffab
ffef
ffbb
003a
fffb
001f
0006
ffe2
fff8
0073
ffd3
0033
ff7b
fff8
ffc2
004c
ffd3
fff2
ffd9
0065
ffe0
0027
ffc0
ffd0
ff9d
0053
ffb5
ffdc
ffee
004a
ffed
0035
0003
ffbf
ff81
0077
ffcd
ffe6
0018
0011
0006
001e
0020
ffc3
ff83
0052
ffe1
000f
0039
ffde
ffff
0031
fff9
ffbf
ffae
003c
0001
0000
002a
ffe2
0002
001f
0003
ffb5
ffad
004a
000f
fffd
001e
ffab
0007
003d
ffd6
ffce
ffcb
0031
000c
0004
000f
ffc4
fff5
0006
ffe8
ffe9
ffce
0039
0017
0008
0021
ff9e
ffea
0015
ffe6
0017
ffbd
0010
0017
fff0
0038
ff7a
ffde
ffcf
ffaa
0051
ffd9
ffd8
0007
ffc9
0013
ff52
ffa4
ff40
ff79
00d4
ffc3
ffa8
ffe0
ff85
ff6c
ffad
ffb0
ffb4
ff7f
00ff
ff47
ffbd
ffbc
ff96
ff7d
ffb9
0001
ffd5
ff91
0088
ff69
fff1
ffe1
ff75
fffb
0010
ffe3
fff5
ffd3
001d
ffea
0013
0001
ffde
ffea
ffe2
ffdb
ffd4
ffdd
fffa
fff9
0031
fff6
fff1
0016
0001
ffea
ffe9
ffb1
ffba
fff7
003d
ffca
ffb0
ffd5
0009
ffb7
0003
ffa6
ffce
ffd2
0081
ff9e
ff78
ffea
ffd8
ffe5
0051
ffbc
ff90
ff9a
0069
ffbd
ffb8
ffb9
ffda
ffe0
0019
ffcb
ffde
ffe7
0058
0009
fffb
ffee
ffcf
fff1
ffdb
ffdf
0005
ffe2
0023
0023
0033
fff3
ffab
ffd0
ffc6
ffec
0018
fff3
fffb
0037
0028
fffd
ffcc
ff9d
ff8d
fff5
0012
fffd
0016
0029
002c
fffa
ffbf
ff90
ff91
0021
002c
000b
0009
0032
002b
ffed
ffcc
ffa0
ffab
0040
0015
0003
0020
0036
002b
ffeb
ffc5
ff72
ffb0
002b
003c
fff9
0017
001e
0037
fff1
ffde
ff74
ffb5
0042
0029
0010
fffb
000d
0024
ffea
ffdc
ff77
ffed
0036
005a
000a
0008
002c
fff5
ffe7
003f
ff59
0000
ffaa
003b
0001
0002
0047
ffdc
ff9d
007e
ff83
0017
ff5a
0012
ffbf
0016
001c
ffe1
ff7a
007d
ffad
0014
fffd
ffde
ff98
0049
ffe6
0002
ffaa
003b
ffe6
0018
0025
ffd2
ffb4
0061
ffd5
0028
ffd9
ffee
ffcf
0026
002a
ffb7
ffc9
005d
ffde
0037
ffef
ffd3
fff7
001e
fff7
ffb4
ffc8
003d
ffec
0025
001c
fff0
fff8
0021
0005
ffb7
ffc6
001f
0008
002e
000d
ffcc
ffe5
0012
ffed
ff80
ffd7
000e
0017
004f
003b
ffbb
fff0
ffd6
ffde
ff78
fffd
000f
0018
001f
0042
ffa4
ffdc
ffd9
ffc0
ff7c
0023
001c
002d
000f
0035
ffac
ffd4
ffc6
ffa7
ffe0
003b
ffbf
0031
ffd8
0041
ff5c
ffca
ff6d
ff5c
0055
fffd
ff6e
002a
ffa6
ffa3
ffc8
0008
ffd8
ff7a
00a4
ff9b
ff5f
ffdc
ff7c
ff6f
ffdd
0010
ffc7
ffb4
007e
ff94
ffc4
002a
ffbe
ffe2
001e
ffd8
fff7
ffe2
000c
ffd2
fff9
0015
ffda
fff7
000c
ffe6
ffde
0005
ffef
0013
0014
fff6
ffe4
000b
ffdc
ffff
ffe0
ffc3
ffdc
fff1
0051
ffe1
ffa9
fff4
ffe5
ffe9
ffab
ffa8
ffd4
ffdd
006b
ffb1
ff8c
ffd9
ffdf
ff9e
0006
ffb9
ffb3
ffc2
007c
fff1
ffd5
ffde
0016
ffd3
ffeb
ffd0
0006
ffd6
0046
000f
0033
fff3
ffbe
ff90
ffab
ffe3
0020
0009
002d
0031
0049
001d
ffd2
ff71
ff94
0014
0032
0025
001d
0019
0042
fffa
fff5
ff42
ffb7
0034
0023
0030
0012
001b
002c
fffc
ffe9
ff87
ffb0
0031
0019
0018
001d
000c
0038
ffe5
ffd9
ff85
ffd6
004b
0001
0017
fffa
0022
0029
000a
ffbd
ff8e
ffdc
004e
001e
0010
ffed
ffec
002c
0004
ff92
ff75
ffe9
0064
003b
0028
ffd1
fff6
0006
ffff
ffd8
ff7f
fff1
006a
004a
002f
ff86
001a
ffe1
ffca
0030
ff86
002a
ffd9
0035
000d
ff7f
003e
fffc
ff7f
008b
ff88
0034
ffa4
0001
ffcd
ffbe
0025
0024
ff5f
007a
ffaf
0016
0011
ffcd
ffbe
0020
0006
0023
ff68
0012
ffb2
0011
0052
ffb6
ffdd
0042
fffe
0031
ffc0
fff0
ffc6
0008
001a
ffb3
ffda
0041
fff8
0051
ffe8
ffe4
ffef
0009
fffe
ffc7
ffd7
002f
0000
004d
0003
ffbc
0017
0006
0007
ffa9
ffdb
0011
0000
0051
fffe
ffde
ffee
ffe6
fff3
ff92
fffd
000f
0026
003d
0006
ffe5
fff4
ff9c
0012
ff51
000e
0001
0037
0050
0045
ffc5
ffc9
ff90
fff9
ff33
003b
ffeb
002b
003d
0039
fff4
ffb2
ff91
ffae
ff24
0051
ffd7
0044
0015
0060
ff96
0002
ff8e
ffbe
ff5b
0034
ffb7
0047
ff77
ffeb
ffd2
0048
0005
ffd0
0007
ffd8
000a
001b
ff38
ffab
ffb8
0059
fff6
ffea
0046
ff94
0022
fff3
ffb5
ffc9
0005
0029
ffe2
ffd3
ffda
ffbc
0025
ffcc
ffd8
fff4
0021
0005
fff6
fff6
0005
fff5
ffde
ffe9
fffe
fffc
0004
fff9
ffcf
fff7
ffdc
fffe
002f
ffe8
ffd4
ffed
ffee
fffe
ffbe
ffc7
ffdf
ffeb
0055
ffd2
ffa7
ffcc
0010
ffc0
0004
ffd0
fff3
ffb2
0060
ffea
ffe7
ffdb
ffff
ff89
ffcf
ffe9
fffd
ffce
003a
ffe7
004a
000b
fff3
ff51
ffbc
0019
0013
001c
002b
fff3
0040
0020
ffee
ff48
ffb8
0049
0014
0039
0004
fffd
0037
002e
ffe9
ff5c
ff9f
0033
0019
0001
0009
fff1
0014
001a
ffef
ffaa
ffdd
0046
fff7
000f
0004
ffe5
002a
000d
ffdc
ffb0
ffd9
0042
0004
0021
ffe2
ffe0
000a
0015
ff97
ffd5
ffd2
0061
002b
001a
ffe0
ffd9
001e
0003
ff7b
ffc9
ffeb
0079
003f
0018
ff93
fffe
ffe0
000a
ffcc
ffe8
0009
0054
004c
0027
ff45
003c
ffe3
ffa3
004f
ffda
0016
ffe6
002d
ffe3
ff46
0049
ffff
ff74
007f
ffd9
0020
fff1
ffef
ffc8
ffad
000d
002b
ff42
005f
ffbe
0001
0013
ffba
0000
fff0
0027
003a
ff91
000a
ffbf
000d
0049
ffb5
001d
0024
0015
004b
ffc4
fffd
ffd3
0014
0050
ffb4
ffde
0030
ffe5
0045
ffe2
ffc1
ffce
0017
0022
ffc8
ffd8
0015
fff3
0045
fff0
ffbb
ffee
ffd5
0027
ffe9
fffd
000b
ffff
0046
ffec
ffd4
ffe9
ffa9
0041
ffdd
ffed
000e
0014
004c
000b
ffcf
ffed
ff8b
0022
ffaa
001e
fffe
0000
0031
0025
ffc4
ffc9
ff80
000d
ff83
004b
fff5
fff5
0007
0035
ff8d
ffcd
ff95
fff3
ff5f
007c
ffd9
fffe
ffcf
0038
ff7a
0035
ffcb
ffba
ff5e
0038
fff9
000a
ff7a
0008
ffbb
006a
ffd1
ffed
ffb6
ffdb
000c
0010
ff5e
ffd3
ffc3
0076
ffde
ffd3
fff4
ff7e
fff7
fff9
ffbe
ffee
ffe6
002f
ffd5
ffcd
ffe3
ffc3
ffd4
ffe0
ffec
ffeb
ffe5
fff8
ffda
ffe1
0007
fffa
fff0
fff7
ffd5
fff5
000d
ffc8
0011
ffe8
ffdc
0005
0009
ffdf
ffe8
fff7
0010
fff0
0000
ffe7
ffdc
0006
0063
ffc7
ffa0
ffc2
0024
ffd3
000d
ffeb
ffec
ffb2
0037
ffca
000b
fff2
002d
ffa0
ffd4
0028
000c
ff72
0028
ffbd
0038
0018
ffdf
ff88
ffbc
0031
fff7
000d
0022
ffdb
000a
002f
ffd0
ffb3
ffa5
004d
ffe8
0016
fff8
ffb9
0031
0021
ffcd
ffcc
ffac
004f
ffe7
000e
ffec
ffab
001d
001c
fff3
ffc9
ffc7
003a
0003
0012
ffee
ffbf
000c
0022
ffce
ffeb
ffd4
004b
0031
0028
ffc9
ffc4
0008
0023
ff76
ffe4
ffe5
0056
0039
0025
ffbe
ffee
0004
001b
ff7d
0013
ffed
0051
0030
004b
ff7f
0025
fff2
ffdf
fff2
0016
000f
0030
002e
0015
ff55
002e
fff0
ffab
0047
000d
001a
ffe6
fff7
fff9
ff74
003b
0003
ff4b
007c
0004
0005
ffe6
ffeb
ffec
ffb7
0021
fffc
ff68
0054
fff3
0009
0024
ffcd
0008
ffde
0028
002a
ff6b
0011
ffee
0004
004f
ffaf
0002
0002
fff7
004c
ffd8
ffda
ffe9
fff6
0065
ffd1
ffe5
0019
fff8
003b
fff2
ff92
ffe3
0005
003e
ffd7
ffd6
0033
fff3
001b
ffdb
ffaa
ffe1
ffe7
0031
ffe8
fffa
004c
ffe0
000f
0004
ffbf
fff7
fff3
002d
fff8
0008
0023
ffc8
0019
001a
ffd1
ffd2
ffea
0008
ffe4
0023
0016
ffbe
0019
001d
ffd6
ffe0
ffb6
0017
ffeb
002c
0031
ffb2
fff1
0037
ffb4
fffb
ffc2
ffca
ffc2
0036
000b
ffac
ff96
004c
ffdb
0016
ffdb
ffc2
ffb5
0038
fff4
ffc9
ff3a
fffb
ffda
004e
ffb3
ffcf
ffaf
ffe0
ffc6
fffe
ff7e
ffa4
ffee
0079
ffce
ffae
ffba
ffa2
ffaa
ff9d
ffae
fff7
ffe6
002f
ffd4
ffee
ffcd
ffc6
fff6
ffd6
fff8
fff5
ffff
0003
ffed
ffee
001e
fff7
fff8
fff0
ffcf
0001
000d
ffcf
000b
ffef
fffb
fff2
fff2
ffe5
fff3
ffde
000a
fff8
0026
0008
ffd0
ffee
002f
ffce
ffae
ffc1
0000
fff8
0000
0004
fff5
ff97
0033
ffc0
fffc
fffa
0000
0001
ffe6
0018
ffd3
ff51
0000
ff9b
000d
0035
ff9d
0006
ffe7
0025
ffd1
0005
fff4
ffb2
0018
0011
ff97
0020
ffd6
0020
ffcd
0024
fffc
ff9d
0010
002a
ffd1
fff7
ffa2
002c
ffcc
0020
ffe8
ffb8
fffe
001c
ffdc
0000
ffb2
0047
ffe7
0027
ffc1
ffbd
0000
001f
ffbe
fff7
ffd5
002d
0010
002d
ffb4
ffe8
ffeb
0034
ff93
fff6
ffd0
0027
0013
002a
ffbb
ffd6
fffe
000b
ffbe
000a
ffe1
003c
000c
0052
ff78
0009
fff1
ffd6
000e
0008
001e
000f
0013
0021
ff6f
003c
ffec
ff8a
0049
0018
000c
ffee
fff3
fffc
ff94
003b
ffe0
ff3c
007f
fff8
0003
0013
ffb2
0008
ffbe
001d
ffcd
ff65
0038
fff5
000a
003c
ffc1
001d
0007
0005
0014
ff84
fff0
fff8
ffe2
005d
ffcf
fffc
0005
ffff
0042
ffc9
ff94
ffda
ffef
0053
ffca
ffdd
003f
ffd8
002a
ffee
ff81
ffe7
0000
0022
0000
ffe3
0052
ffc8
000d
fff6
ff8d
fff1
0007
002a
ffe3
0005
0054
ffd2
fff9
001c
ffa2
ffea
001d
fffe
fffb
001d
0051
ffb0
fffc
0010
ffaa
ffd3
0009
ffed
fffa
0009
004a
ffb6
ffdd
002b
ffa0
ffc9
0017
0004
ffef
0021
0038
ffaf
ffd7
001e
ff95
ffe2
002b
ffe5
fff5
002e
002b
ffbd
ff9a
003f
ffc3
0052
000b
ff82
fff7
0011
ffe5
ffb2
ff38
fff1
ffa9
0081
ff84
ffb0
ffce
fffd
ff9a
fff4
ff92
ffb7
ffd8
006e
0007
fffa
ffa8
ff8b
ffc0
ff9e
ffe3
ffdb
ffd5
002f
0002
ffe2
ffca
ffc8
fff6
ffe9
ffdf
ffff
ffeb
0001
fff3
ffe9
ffe6
fff5
0020
ffe1
ffe4
ffe4
000d
ffcc
0032
0005
ffdf
ffe9
ffe3
ffea
ffe5
ffca
0016
0004
0035
ffeb
ffa3
fff6
fff2
ffe8
ff9c
ffc9
ffe8
0042
0034
ffc7
ffe9
ff90
ffea
ffe1
ffde
fffc
ffd7
003d
0026
ffc3
ffd4
ff90
0012
ff96
fffe
0015
ffc1
0027
fff7
fff7
ffcc
fff0
ffed
ffa6
0009
0019
ff8a
002e
ffcf
0004
ffca
001e
fffd
ffc7
ffe6
0034
ffb3
fff5
ffb7
0046
ff9f
0013
0003
ffe6
fff3
0035
ffd8
ffff
ffbd
004c
ffb9
0025
ffd0
0009
0021
004d
ffcd
0006
ffb7
0029
ffbe
003a
ffdd
0003
0003
002e
ffd7
001a
ffcb
0009
ffd7
0043
ffab
fffb
0011
0007
ffee
0027
ffeb
0004
ffed
0069
ff89
0016
0013
ffa9
fff3
002f
ffed
fff9
ffe6
001c
ffb2
002d
fffb
ff54
0055
003f
0011
fffd
ffd3
fff4
ffe0
0030
ffca
ff65
005f
0023
fff5
0036
ffd1
000f
ffdd
0013
ffe1
ff8f
0023
0004
ffcd
0059
ffc4
000d
0014
0004
0012
ffc7
ffac
0005
ffd0
0052
ffcd
ffe2
000f
fffa
0028
ffd3
ff6c
0019
0002
0043
ffe8
ffe3
0032
ffdf
001d
fff7
ff90
fff7
000c
0018
fff4
0001
0038
ffcc
0002
0006
ff9c
0000
0031
0021
fff8
0016
003f
ffba
fff5
000b
ffa8
fff1
001a
001d
0008
0010
0035
ffbd
ffe5
002b
ffc3
0007
0025
000e
fff7
0007
001d
ffbb
ffd4
0009
ffa9
0015
002a
ffe1
0001
ffed
0018
ffc4
ffc5
002f
ff9f
0023
0025
ffdf
0018
0000
ffcf
ffdf
ff8b
0006
ffd6
0053
0023
ffaf
0010
fff8
ffd3
ffbc
ff72
ffd5
ff98
008f
ff72
ffb1
ffb9
fff0
ff8a
ff9f
ff6d
ffb1
ffd3
0075
ffa8
ffae
ff95
ff65
ffa4
ffa0
ffb9
fff8
ffd2
0045
ffce
ffcf
ffeb
ffc6
ffd6
ffef
ffdf
ffef
fffa
000d
fffb
0012
000b
0001
0006
fff9
0014
0001
001e
ffe0
0022
000a
ffe8
ffde
ffe2
ffef
ffe5
ffc7
ffe6
fff2
0038
fff4
ffb2
ffce
ffe5
ffcc
ffb5
ffa5
ffd3
0021
0057
ffad
0018
ff8a
ffe9
ffa7
ffb9
fff4
ffdd
0032
0038
ffc3
0007
ff57
0020
ffc2
ffd0
0014
ff81
003b
0025
ffdd
001b
ffcc
fffc
ffb2
ffda
002b
ff8e
0033
ffea
fff6
0024
fff8
ffe8
ffcd
ffe2
001b
ff9f
001b
ffee
001f
ffd2
0008
ffdd
fffd
000d
002e
ffbf
000f
ffb1
0026
ffa9
0026
ffd7
0013
fffc
0032
ffe1
0012
ff8c
0014
ffb4
0036
ffc0
0023
fffe
003f
ffde
0015
ff81
fff4
ffa2
005a
ffad
0011
000b
fffb
ffd9
002b
ff9d
fff0
ffc6
0064
ffb6
0037
0017
ffbd
0015
0047
ffc9
0010
ff9b
0019
ffd8
0043
fff0
ff60
003f
0029
ffae
0033
ffb3
0001
fff6
0015
ffdc
ff85
0066
000a
ffc3
0064
ffc0
0011
0010
ffe7
fff3
ffad
0003
0012
ffda
005a
ffe4
ffee
fffe
fff2
001b
ffea
ffb8
0007
0004
004a
000b
ffeb
0000
fffd
0008
fff6
ffa1
000c
000e
0026
0001
0000
0015
ffe1
0012
fffa
ffac
fff3
001e
0016
0011
000b
ffff
ffc2
ffe1
fffa
ffcb
fffa
002e
ffed
0008
0012
0004
ffdb
fff1
ffff
ffcb
0008
001b
0003
0020
0009
0015
ffe9
ffe7
fff9
ffe4
0010
0025
0000
000a
fff7
ffe8
ffe1
ffd9
001b
ffe4
0021
0033
ffc1
0005
0011
ffe6
ffc5
ffb0
0007
ffe6
0014
003b
ffdf
000a
fff7
ffdf
ffec
ff75
ffec
ffe3
0057
ffe1
ffb7
0007
0005
fff8
fff9
ff50
ffbb
ffb8
00b7
ff82
ff99
ff93
ffe6
0008
ff60
ff96
ffbf
ffec
0068
ff97
ffc3
ff9f
ff74
0005
ff97
ffd7
001b
ffd7
0049
ffe3
ffd2
ffd9
ffa7
ffd7
ffd7
ffb9
ffda
fff1
ffdb
ffce
ffda
ffd1
0002
0028
ffce
fffc
ffff
0029
ffe8
0010
0000
ffe0
000c
0001
ffd8
fff9
ffbe
fffe
ffdf
0026
fffd
ffb7
ffee
001d
ffdb
ffb9
ffb1
ffef
001e
0068
ffc0
0008
ffa7
ffde
ff82
ffa0
0001
ffa5
0037
0040
ffbe
0015
ff80
fffe
ff9d
ff9f
0002
ff5d
0047
0032
ffde
0046
ffa8
fff1
ffe4
ffc2
fffb
ff51
0016
fffb
ffc4
0050
ffd1
ff99
ffce
ffd1
0004
ffb2
002f
ffe7
ffe5
001d
0011
ffad
000c
ffec
0021
ffed
0020
ffe3
0002
fff2
002d
ffaf
0017
fff6
0034
ffe2
0005
ffbb
ffdf
ffd3
0026
ffb9
0043
ffee
0042
ffe6
0036
ff9f
ffd2
ffba
004d
ff9d
0030
0025
001d
ffd8
0029
ffa4
ffdf
ffd1
0047
ffd3
002d
0009
ffce
0027
0045
ff98
fff2
ffca
0050
fffb
0019
ffca
ff87
0039
0027
ffb2
002b
fff2
002f
001a
fffa
ffdc
ffa2
002b
001e
ffb1
003b
fffe
000c
001a
ffe7
000e
ffdf
ffeb
0010
ffef
0035
0000
fffc
fff0
ffe8
000a
ffe0
ffa5
0017
002f
0028
0010
0018
ffee
ffef
fffe
0009
ffc2
0017
0034
ffeb
000a
001a
ffe6
ffdc
ffdf
0008
ffea
000f
002d
ffe5
ffff
0035
ffeb
fffe
ffd8
000e
ffe3
000a
0031
ffe1
0015
0019
fff2
ffdf
ffef
ffec
fffa
000b
0024
ffe5
0005
fff8
ffee
ffec
ffe3
0014
fff7
0005
0022
fff7
000b
fff9
ffd8
ffd3
ffd6
0006
ffee
0034
0039
ffb0
0014
0005
ffb8
0003
ffac
fff2
ffc4
0038
fffd
ffa4
001a
fff6
ff8f
fff9
ff86
ffee
ffea
0063
ffa5
ff99
0011
fff4
ffc6
ffd8
ff71
ffb7
fff4
0097
ff6b
ff93
ffc2
ffe5
ffd3
ff67
ffb9
ffd8
fff5
0042
ffa3
ffc9
ffb7
ffc0
0021
ffc0
ffdb
ffcd
002a
0025
ffd2
fffb
ffd4
ffd8
ffd8
ffd7
ffcb
ffee
0014
ffe2
0009
fff1
fff6
fff8
0003
ffe3
ffe6
001d
0020
ffbd
000d
ffdb
ffd9
ffd0
0024
ffd5
ffcb
ffd8
ffe9
ffd2
001c
fff3
001e
ffd7
0038
ffc4
ff9f
ffbc
ffb8
ffe8
0072
ffd3
fff4
ff8c
ffd5
ff94
ffa0
ffe1
ff6f
0030
004b
ffbf
0029
ff91
fff4
ffc6
ffa9
0011
ff65
0024
0035
ffd3
001d
ff9b
ffcc
0000
ffb6
ffff
ff99
0024
0024
ffd9
003d
ffe0
ffa1
fff6
ffdd
0026
ffd1
0034
0016
ffb6
0022
ffff
ff9c
0001
ffea
0013
ffed
003b
fffe
ffc1
003a
fff7
ffaa
0008
ffcd
0039
fff9
0014
ffdc
ff9b
0005
001d
ffc8
000c
ffb9
0036
fffc
001d
ffc6
ff9b
fff0
002f
ffaf
0012
ffac
0030
fffb
0031
ffb6
ffc6
0004
0058
ffc3
fff6
ffc4
fffd
ffff
0027
ffb2
ffcc
0008
0046
ffe9
0002
ffc4
ffd7
002c
003d
ffcb
ffd8
fff9
0030
fffe
ffcd
ffd3
ffd1
0016
001c
fff7
0022
0010
002f
0014
ffdf
ffe8
ffee
0002
0005
001b
0018
000f
002c
fffc
fff6
ffd6
fffb
fffa
001e
0021
fffc
fffb
003a
ffc7
ffe8
fff1
ffee
ffe4
0018
0037
ffe0
0016
0027
ffcc
fff8
ffd8
fff9
0000
0005
0038
ffd4
0010
0010
ffbd
fff3
ffe7
ffff
0021
0008
0032
ffdf
fffd
001b
ffdc
001b
fffb
fff6
0021
000d
0012
ffca
000f
0017
ffb3
0002
ffeb
0011
fff1
0028
0040
ffdf
0020
0019
ffa9
fff1
ffb7
000a
fffc
001e
000f
ff98
0020
ffeb
ff8d
0013
ffba
ffea
ffe9
0026
fff7
ffa4
001a
ffe4
ff7c
0009
ffc3
ffe8
fffa
0045
ffcb
ffa1
0034
ffcd
ffbd
ffe9
ffbe
ffa4
001d
007b
ff6e
ff9c
fff0
ffcd
ffc2
ff50
ffe2
ffa8
fff4
0067
ffa0
ffd9
ffc9
ffb2
ffe9
ffb4
ffc8
ffd3
0029
0014
fff0
fff2
ffc8
ffc7
ffe0
ffc8
fff4
ffff
0015
0013
0001
0014
0013
fff0
0004
ffed
0005
000b
ffd6
ffd4
fff1
fff8
ffeb
fff4
000e
ffc3
ffd3
ffea
ffe3
0003
fff0
000e
000c
ffe7
ffec
ffb5
ffb7
ffb2
ffe3
ffe2
0051
ffd6
fffb
ff96
ffb0
ff80
ff91
fff0
ffc3
0033
0053
ffd2
0007
ffb0
ff96
ffb9
ffbc
0002
ffa3
000e
0041
ff9f
0031
ff9b
ffad
0004
ffee
000f
ffee
002f
0047
ffbc
001b
ffbc
ff8d
000a
ffd9
000b
fffb
001f
0015
ff8a
0017
ffd6
ff9b
000e
ffa8
0020
000e
002b
001b
ff94
002e
ffe1
ffc8
0016
ffb8
001a
ffff
0037
0021
ff93
0032
001e
ffc5
0004
ff9f
0038
001b
0036
ffe7
ff91
0013
0042
ffc6
0002
ff89
004f
0011
0026
ffeb
ffb1
0028
0049
ffd8
ffde
ff9d
003e
0001
001b
ffc7
ffd2
0001
005d
0005
fff3
ffa5
0008
fffe
0005
ffdb
ffd8
0001
0047
fff7
fff6
ffde
0001
0008
0008
000d
ffe0
fff0
0051
0010
ffd0
ffe2
0003
fff5
000b
fffc
fff6
0009
002f
ffdf
ffeb
ffe8
ffed
0016
0006
0015
fffa
0002
0023
ffbd
ffdf
ffd0
fff1
001e
0003
0021
fff6
0009
001d
ffa9
ffe8
ffde
ffe4
003d
0015
002b
ffe2
001c
001f
ffa3
0009
ffca
ffe1
002a
0026
0019
ffd8
001a
0005
ffa8
fff5
ffe8
fff9
fffa
0025
0023
ffc6
0002
fffe
ff9f
0018
ffd5
0004
fff7
0033
001b
ffdb
000b
000c
ff9e
001e
ffca
000a
ffe6
003a
fff8
ffb0
002e
fff1
ff76
0014
ffc3
ffce
fffa
0026
ffef
ffa6
0037
fff0
ff95
001b
ffcd
ffcc
fff2
0052
ffc6
ffb9
000d
ffae
ffec
ffc2
0016
ffa6
001e
0051
ff84
ffa3
0017
ffbe
ffc1
ff8a
000a
ffdf
000a
002c
ffef
ffe6
ffd4
ffe6
fff5
ffae
ffd5
ffec
0020
fffe
000e
fff9
fff6
0010
0012
ffec
ffe8
ffef
001e
fff3
ffd9
0006
fffc
000b
fff7
ffd7
0010
fff3
fff7
0007
ffff
fff9
fff2
fff8
fffb
ffdd
fff3
ffd9
ffd9
0016
0023
ffe6
ffbd
fff5
ffb7
ffba
ffc4
ffcd
0001
000e
0052
ffce
0012
ff9f
ff73
ff9b
ffab
ffe8
0014
000e
0037
ffc1
0029
ff72
ffb7
ffc4
ffdf
0007
002f
000f
000e
ffae
fff9
ff86
ffb8
ffdf
fff1
0013
0022
001e
002e
ff9b
000a
ff96
ffa8
0026
ffd1
fffd
001a
0018
0017
ff96
0008
ffcf
ffcd
0010
ffc8
fff5
0015
001d
000a
ffb7
001f
fff5
ffcb
000c
ffe2
0006
000e
001e
000a
ffb3
000b
0011
ffe2
fff0
ffd9
002d
0003
001b
ffee
ffc7
000a
000b
ffdd
fff0
ffba
0036
fff8
001b
ffd5
ffc2
0018
002d
ffe1
ffef
ffaf
003b
ffd8
001f
fff6
ffd6
0008
0058
fff4
fff6
ffbe
001d
ffce
fff6
ffec
ffc2
0023
0066
fff7
000d
ffde
0015
fff2
fffc
fff3
ffe0
0001
0055
fff7
000f
ffd9
fff9
fff4
fffb
0018
0002
0009
0044
fff4
fff5
ffdf
ffe7
000e
fff6
0007
ffeb
0008
0023
ffe0
ffe3
ffce
ffe4
0025
0026
0019
0001
0016
0027
ffcf
fffe
ffc6
ffdd
0034
002d
002e
ffed
fffc
0024
ffad
ffec
ffd7
ffc8
0003
0030
002b
ffe9
0009
0019
ffaf
0007
ffd7
ffdb
002a
0012
0005
ffe7
001e
fff2
ff9a
fffb
ffd3
0003
ffff
0023
ffef
fff9
003d
ffd7
ff8b
0015
ffe2
fff1
ffbf
002a
ffd4
ffe3
0028
ffe5
ff74
0015
ffe0
ffef
ffcd
004c
ffd4
ffc9
0024
ffd0
ff73
fff8
ffeb
ffd8
000d
002a
ff86
ffdb
0014
ffc6
ffd4
ff9d
0023
ffac
0009
002c
ff8f
ffc5
fffc
ffd9
fff1
ffaa
fffe
0022
fff8
001d
ffee
ffe0
fff5
ffed
ffd6
ffa3
ffc4
fffa
fff5
0008
000e
0007
ffe6
0013
fff8
fff3
fffa
0011
0029
ffdd
ffef
fff9
ffff
fffa
fff8
ffd8
000f
fffd
0012
ffe3
0001
fff9
0003
fff5
fff6
fff5
fff0
ffb8
ffd2
000a
001c
ffd9
ffb8
0005
ffcb
ffd1
ffb8
ffc8
000d
0005
004a
ffbd
fff7
ffc3
ff95
ffc5
ffdc
ffbe
002f
002f
002a
ffa7
0028
ffa2
ffbc
ffdc
ffe3
fffd
0057
0010
0027
ffb1
ffee
ff8f
fffd
ffd8
ffd1
001f
004a
002c
0010
ffa5
fffa
ff69
0005
0011
ffca
0005
0022
0029
0005
ffb9
ffe8
ffa7
0001
0002
ffc7
0013
000b
0040
0015
ffc9
0005
ffe5
fff8
0007
fff9
0021
fffa
001d
0007
ffbd
000e
ffde
ffe4
fff4
ffe8
000f
ffde
0026
fff6
ffde
0002
0000
ffdc
fff9
0008
002e
ffb7
000a
0017
ffe2
0020
fff6
fff2
0010
ffe9
002b
ff9f
0010
fffb
ffb6
0012
0015
fff0
001d
ffed
0033
ffaf
fffb
fff1
ffe4
0036
0013
ffe2
001c
ffee
0034
fff1
ffee
0002
ffda
0023
001d
ffd8
0030
ffe2
000b
0011
ffdd
0004
fff0
0013
000d
fff1
0011
ffdc
0003
0004
fff5
0007
ffd8
0014
fffe
fff1
fff0
ffed
fffc
002b
001a
001f
0007
001f
0001
ffcd
0011
ffd1
ffe1
002c
002a
0005
fff8
0008
fff1
ffb0
000c
ffc0
ffe6
001c
0036
001e
0023
0027
fff1
ffaa
fff3
ffc1
ffea
001d
0019
0008
0016
000b
fff3
ff94
ffe9
fff3
ffe3
ffe8
001e
fff0
001c
0026
ffe1
ff8f
0016
fff6
ffe9
ffa0
0030
ffdb
0000
000e
ffba
ff8f
fff3
0006
fffa
ffe2
003d
ffc7
ffef
0023
ff98
ff83
ffdd
0024
ffe0
ffe3
0035
ff95
ffe1
000d
ff94
ffac
ffc0
0013
ffc6
fffc
000a
ffcf
ffd9
fffe
ffb3
ffec
ffa6
0011
0008
0017
ffe3
0000
0016
0012
0014
ffd5
ffcc
ffb9
0018
000d
fff1
ffe6
ffef
ffe7
fff7
0011
0004
fff4
fff3
0001
0000
0010
0008
ffee
000b
0006
fff9
0005
fffe
0007
000a
0009
0013
0007
0004
ffeb
ffee
fffe
ffe8
ffee
ffe5
0034
fff7
0000
0002
ffd6
ffe5
ffa7
ff9c
ffc6
fff3
006e
ffd0
001f
ffe1
ffaa
ffc1
ffdc
ff8e
fff6
0004
0059
ffb0
002e
ffb8
002a
ffca
ffb4
ffcd
0051
ffe1
0036
ff92
0020
ffad
003c
ffb7
ffe2
ffee
0043
0002
0036
ffdf
ffda
ff83
0037
ffaf
ffdb
ffff
0008
000d
0036
ffe2
ffed
ff90
004b
ffea
ffe4
0013
fffc
0011
0017
ffdd
001a
ff9d
ffeb
0015
fffa
0029
0003
0002
000d
fffb
000b
ff9a
0003
fff9
ffe5
0035
ffd3
fffd
0012
ffee
002c
ffb9
0000
fffd
fff2
0043
ffe6
000c
0025
ffec
001d
ffb4
ffd4
0020
ffe8
0035
ffe6
ffff
fff5
ffed
002b
ffc0
ffe3
0027
ffec
0042
ffd7
ffde
000e
ffd6
fffc
ffe0
ffed
0042
ffe7
0030
ffcd
ffed
ffef
ffdc
0021
ffe2
ffeb
0024
ffdc
001f
0011
ffe7
000e
fffe
0013
ffec
0004
0027
ffe5
000b
001d
ffee
ffea
000f
0019
ffe0
ffe9
0035
ffe4
fffc
004a
fff5
0015
0014
0000
ffd8
ffed
000d
ffe2
ffec
000d
0034
0030
0018
ffef
ffed
ffd6
000e
ffe9
ffc1
000c
0048
fffa
0025
0006
ffd3
ffb2
0017
fff8
ffb6
fff1
002d
ffea
0018
001b
fff6
ffa9
0013
fff6
ffb1
ffdb
002d
ffe8
0020
ffff
ffc5
ff86
000d
0028
ffc3
ffd7
0035
ffbe
fff6
000f
ffb1
ffa7
0003
0037
ffbe
ff93
0013
ffb9
ffce
0026
ff90
ff72
0019
0038
ffcc
ffdc
0037
ffd5
ffc7
0013
ffa4
ffb7
ffc4
002b
ffd0
fff7
0025
ffca
0006
0002
ffdf
ffc3
ffc8
ffe9
fff1
0025
ffd2
0015
001a
0001
ffdf
ffe8
ffc3
ffb4
fff2
0011
ffef
fff0
0001
000a
000f
fffd
000d
0002
fff6
ffeb
fffd
ffee
fff5
ffed
0012
0011
0006
0003
fffd
0001
000a
ffea
0009
fff0
0006
0005
0013
ffea
ffe1
0006
ffde
001a
fff6
fffe
0009
fff4
ffee
ffdb
ffca
ffc6
ffa1
005a
fff4
0002
0005
0016
ffbc
ffa8
ffd3
ffb6
ffab
0069
ffa1
0003
ffe4
0025
ff8d
fffc
ffc2
0016
ff9f
0031
ffd1
000c
ffb1
006a
ff7b
0009
ffbf
fff5
ff9b
0056
fff4
ffed
ffa4
0049
ff82
0006
ffd3
ffe0
ffac
0055
ffd6
0001
ff94
004b
ffd1
0011
ffe8
ffd4
ffd0
002c
ffe8
fffc
ff7e
0022
ffe8
000a
ffe4
ffdb
ffca
002d
fffc
0029
ff86
0017
0008
0006
fff6
ffb9
ffcc
0045
fff4
0021
ff59
0005
0002
0001
0006
ffa8
ffd5
0030
fff0
0010
ff82
001f
0006
fff9
0017
ffad
fff9
0037
ffd5
003c
ff92
000d
0024
ffe3
001e
ffa7
ffe7
0025
ffdd
0030
ff7b
001f
0017
ffcd
0005
ffc4
0009
0037
ffed
003a
ff81
0012
002a
ffe5
fff1
ffbc
fff5
000f
ffe3
0023
ffa6
0018
002d
ffde
ffea
ffa4
ffe1
001f
fff1
000a
ffc5
0003
0035
ffef
ffcd
fff6
0000
0007
ffec
001e
ffb2
fff8
0010
0010
ffa9
fff9
000d
ffde
0015
0009
ffbe
ffe0
001c
0012
ffaa
0009
fff2
ffe0
0012
0006
ff98
ffd8
003e
0022
ff89
ffe8
0002
ffce
fff9
fff9
ffaa
ffc1
0017
0037
ff81
fff1
0006
ffd4
fffd
fff2
ff73
ffcd
ffd9
0038
ffb0
ffc0
0019
ffe4
0006
0028
ffa5
ffb8
ffcc
0048
ffa4
ffc6
000e
ffd0
ffef
0028
ffb9
ff7c
ffe0
004a
ffcc
ffe4
0056
ffc6
ffe0
0012
ffee
ffb5
ffb4
ffe6
ffd8
000b
004d
ffce
0017
ffc1
ffdb
ffdc
ffa2
ffd1
000f
0013
001e
ffe4
ffe0
ffc5
fff5
fff2
ffe8
ffdb
fff3
0009
000f
fffc
ffee
ffec
0008
ffeb
ffee
0015
fff9
ffec
fff9
0010
fff5
ffee
fffd
0008
0015
0004
fff9
ffef
0008
ffed
ffee
0010
fffa
0014
000c
fff8
fff4
fff7
fffb
0026
0001
ffee
ffea
ffdd
ffd9
0029
ffe6
ffe1
ffda
fff8
fff1
0020
000f
0034
ffe8
ffd0
ffd4
ffa3
ff95
000b
ffe5
0019
fff1
0044
ff96
0005
ffb1
ff7f
ff63
0018
ffbf
fff4
ffbe
0046
ff81
0043
ff98
ff86
ffa9
0049
ffbf
fff5
ffbe
003e
ffbb
0028
ffa0
ff63
ff7c
0048
ffad
ffe9
ffcc
0039
ffa6
0040
ff74
ffa1
ff56
0083
ffa6
ffd5
ffa2
0054
ffa6
0036
ff6c
ff9c
ff5b
0065
ffa4
001b
ffbd
0051
ffa9
0010
ff60
ff34
ff5d
0071
ffbb
0018
ffa4
0023
ffdb
001b
ff72
ff41
ff83
005c
ffb7
0014
ffb1
0043
ffd6
000a
ff60
ff8e
ff86
0064
ff93
0021
ffc5
002c
ffcd
0025
ff6d
ff90
ffb9
0069
ffb2
002f
ff9c
003b
ffd0
001b
ff6f
ff8d
ffe4
0038
ffbd
001c
ff9a
0037
fff7
001f
ff63
ff68
ffe7
001b
ffb5
002d
ff99
003c
0018
001d
ff73
ff4b
ffd6
0010
ffa4
0032
ff92
0022
0014
0026
ff75
ff54
ffdf
0010
ff97
003e
ffab
002c
0005
002a
ff5d
ff5b
ffc4
fff3
ffa6
0019
ffa6
0024
000d
0046
ff70
ff89
ffa3
0018
ff9e
000a
ffb2
000f
000c
0042
ff93
ffad
ffc7
fff6
ffb9
fffa
ffbc
ffd8
ffe9
0073
ff9d
ffc9
ffa2
ffe9
ffb1
001a
ffd8
ffe2
ffb6
006a
ffa1
ffe2
ffc7
ffea
ffc4
004e
ffcd
ffef
ff93
002b
ffbb
ffe5
ffab
ffb5
0004
0034
ffd8
ffaf
ffdb
000a
ffc7
ffe5
ffe0
fff1
ffbf
0033
fff0
ffe7
ffb6
fff3
fff3
000e
0016
fffa
ffe3
0002
fffa
ffe3
ffd8
fffa
0011
0000
0025
fffe
ffea
0009
ffe1
ffea
ffcc
ffcf
0001
0007
000a
fffc
0003
0003
0007
fff2
ffea
fff2
0012
0013
0015
0013
0007
fff9
000f
fff5
fff0
000e
fff8
ffee
fffa
ffed
fffe
0000
fff8
fff0
0015
0006
fff4
0008
fff5
fff5
fffe
000d
0015
fff6
0013
0002
000a
ffeb
fffd
fff9
fff5
ffe8
ffe4
fff7
ffeb
0014
fff3
ffdd
ffd1
ffc0
000b
ffdb
fff9
ffdb
ffb5
002c
ffe1
ffcb
ffe0
0002
ffef
ffd7
fff8
ffcf
ffb8
0050
ffad
ffa4
ffba
000b
ffd7
ffa5
ffe7
ffe6
ffb3
0057
ffb0
ffc0
ffa6
0015
ff82
ffa7
ffd9
000f
ffcb
0040
ffa3
ffb7
ffa6
ffec
ff6e
ffad
fff8
001c
ffcd
0050
ff98
ff96
ffbf
ffea
ff46
ffb9
ffd7
0024
ffb9
004a
ff85
ffa1
ffa3
fff3
ff64
fff3
ffec
0032
ff91
0044
ff99
ffa2
ffb8
ffe3
ff42
fffd
ffd1
0023
ffa4
0046
ffa0
ff80
ffb9
ffe4
ff45
0011
ffe5
0020
ff9d
0049
ff98
ff60
ff7c
ffdb
ff16
ffef
ffc7
0031
ff93
0057
ffa8
ff8a
ff7a
ffd5
ff16
ffd7
ffc6
004d
ffa7
0081
ff8c
ffcb
ff84
ffd7
ff46
000e
ffd5
0067
ff33
0037
ff8c
ffb6
ff92
ffe6
ff33
fff1
ffc3
0050
ff26
004a
ff94
ff7d
ff8a
0001
ff2f
fff4
ffba
0056
ff83
002d
ff8d
ffc8
ff87
fff5
ff33
ffc1
ffb0
0056
ffa2
0046
ffce
ffd1
ffa8
0014
ff65
ffec
ffd4
004d
ff5d
0026
ffb1
ffd5
ff9e
ffe8
ff59
ffed
ffe9
0014
ff8e
004c
ffa6
ffc7
ffaf
ffe8
ff87
001c
ffda
000d
ff8f
001b
ffe2
fffb
ffbb
ffeb
ff92
000f
0009
0034
ffde
000a
ffcc
ffed
0000
ffd1
0003
ffea
000b
fff7
000e
0027
fff8
fff6
ffe9
ffea
ffdd
0001
000e
ffd0
ffe6
0007
000e
fff1
ffea
0003
fff3
ffe7
fffd
0012
0007
fff4
0016
fff6
fffa
000e
0015
0000
fff9
0011
fffc
000f
fff1
0007
0001
fff4
000f
000e
0007
fff4
0010
fffb
0011
fff5
000b
0011
ffef
0010
0016
fff5
000c
fff2
0016
fff5
0000
000d
0015
ffeb
0004
000a
0014
fff0
0006
fff1
ffff
ffec
ffff
0009
fff2
000a
fff8
fff5
0014
ffec
fff7
0009
fff2
0004
ffeb
fff0
000a
fffe
ffff
ffff
fff9
ffed
fffc
ffeb
000e
0019
ffec
ffe9
ffdf
fff5
fffd
fffe
000f
ffff
0008
0026
fff8
ffc1
0002
fff5
ffe8
fff6
ffd1
fff1
ffeb
001c
fffa
0015
fff7
fff5
fffd
ffe7
ffcf
ffe4
fff4
0007
ffe5
000b
0000
ffe9
000e
fff1
ffc4
ffcb
0003
0035
ffd9
0008
fffd
0007
fff2
ffee
ffc0
ffe2
0004
0020
ffcc
fff2
fff7
ffd9
ffef
ffb2
ffa7
0002
fff5
003f
ffd4
ffee
ffe5
ffd9
ffdb
ffc5
ffc8
fffd
ffed
001d
ffaf
ffe4
ffe4
ffcc
ffe1
ffaa
ffc2
0000
ffe4
0030
ffb8
fff1
ffc6
ffcc
fff2
ff98
ff93
ffe7
fff9
006c
ffc6
ffae
ffe3
ffe2
0002
ffaf
ff85
ffb3
fffb
0054
ffd5
ffee
ffc2
fff0
ffea
ffd3
ff9c
ffbb
fff4
0056
ffb3
ffe8
ffdb
fff2
ffdc
ff9e
ffaa
ffb9
ffe4
0049
ffc7
ffcb
ffd3
ffcf
ffef
ffc1
ffa3
ffa1
0000
006e
ffc4
ff8f
ffe3
fff0
ffe6
ffbd
ffb8
ffb4
ffe3
0051
ffd7
ffe0
ffec
ffe6
ffd7
ffd1
ffce
ffb6
0000
0049
ffb8
ffe6
fff1
000a
ffc8
ffe8
ffc2
ffc3
ffe4
0017
ffd5
0011
ffe7
000b
ffc0
ffe7
ffe6
ffe7
ffda
0024
ffbf
ffe9
ffe1
ffff
ffce
ffd0
ffb4
ffdd
ffea
0036
ffe6
ffea
ffd3
ffe7
ffd8
fffc
ffe0
ffdb
fff5
0033
ffcb
ffd9
000b
fff4
0000
ffed
0004
fffc
ffff
0000
fffc
fffc
ffeb
0010
000c
0005
0014
0014
fff9
ffec
0013
0010
0012
0008
ffeb
fffd
000b
fff8
fff5
ffff
0002
0010
0002
fffb
0002
fff6
0013
0011
ffef
000e
0010
000e
