06
08
07
FD
FA
06
F8
08
09
FF
FF
04
04
FB
FE
F8
09
09
FC
F8
05
07
05
03
00
05
09
F9
FB
09
F5
00
03
F7
07
FB
F6
FB
FB
06
F9
00
02
F7
0A
04
06
FA
00
F9
05
FD
0A
0A
00
00
F6
F6
04
F6
F9
FF
07
01
FF
0A
F9
F9
07
F6
03
0B
03
08
00
01
FC
02
05
FE
08
04
05
FE
FE
FC
0A
0A
F6
FF
F9
05
07
F8
01
FB
FA
03
07
06
07
06
FA
FE
05
0A
03
F5
02
FF
09
08
04
FB
06
F7
09
06
08
01
F7
0A
09
F5
FF
03
01
F6
02
FA
FE
07
07
FE
FC
08
0A
0A
06
08
F7
0A
F8
F6
0A
FF
FB
00
F6
03
01
FA
FE
0B
F8
00
FD
F7
03
00
FE
FE
09
F6
FE
FC
F5
F8
03
F8
02
F5
09
F7
0A
F7
09
F6
08
FF
05
0A
08
FF
08
09
FB
07
FF
FF
FF
F6
02
F8
FC
FC
05
01
06
02
09
FC
0F
0C
00
06
F6
04
02
FC
06
F6
00
04
06
03
04
F0
00
0F
00
FE
FF
06
F6
F8
08
FE
03
08
FD
0C
05
03
09
00
F9
0D
F9
06
0A
09
01
FE
F8
06
07
FD
F9
F7
F8
06
07
01
FC
06
FC
08
02
02
08
0B
06
F5
01
FF
02
08
FD
FA
02
09
04
FE
05
06
0A
FC
FE
FC
FF
F6
08
04
09
03
08
FF
F5
04
FC
F6
FA
F5
05
04
05
FB
F8
08
F7
FC
FB
06
04
FB
FE
06
00
06
FA
07
F7
F9
FF
F8
07
01
F9
F6
0B
F8
01
09
FB
09
FB
03
04
0B
07
00
FA
09
F9
FD
F9
09
03
03
F7
08
FE
F5
F8
07
F8
F8
06
FE
07
05
0A
F8
02
05
FF
F5
F8
09
09
05
02
02
FD
03
04
FE
F6
06
F6
FD
F6
FD
08
05
FF
F9
02
FA
FF
F6
08
FB
FA
FD
F6
06
05
FB
F7
0A
01
FD
04
08
F6
FA
01
05
0A
FA
01
F5
04
F6
FE
03
FC
07
03
06
09
09
FE
07
07
FC
09
F9
02
05
0A
05
F6
08
FE
FF
02
FE
06
06
FD
01
07
02
FA
02
FF
09
09
F9
FC
F8
01
09
07
F9
06
F5
08
09
05
FA
0A
01
FF
0B
FA
09
0A
F8
02
FD
04
F6
FD
0B
F5
0A
F9
F5
09
FC
F7
0A
02
FC
09
F7
04
FB
F9
F8
09
FB
08
05
FA
08
00
FF
06
FD
04
03
FE
F9
05
08
07
04
F7
05
05
FC
F6
F8
F8
0A
F9
FB
02
F5
FA
04
00
FE
09
0B
0C
06
0C
03
F9
00
FB
FF
FD
FF
FF
F6
0A
04
07
07
02
FE
FE
FF
02
F8
FB
FD
EC
F9
F8
05
17
F7
07
11
F6
FC
13
13
09
05
EE
0F
E8
F0
08
05
16
08
07
1F
02
FA
1D
0D
0F
F2
EF
0C
FA
F4
05
F0
0E
F6
0A
14
09
F2
09
01
11
00
F8
05
F6
ED
F9
EC
F7
06
10
09
FF
ED
1B
F4
15
F2
EC
05
F0
F0
09
EF
08
F7
0D
1A
0A
F6
0A
F5
1E
FE
E6
18
F8
F0
07
EA
0A
F9
07
19
F5
E9
10
03
0B
FF
E7
0B
F8
DD
03
E3
0A
07
0C
13
FD
F2
1B
01
1B
E6
E7
27
F2
DE
06
E4
0C
01
0B
18
0A
ED
1B
FC
1A
03
D9
24
F3
F0
01
FF
00
FE
03
10
FC
02
04
FE
FC
05
02
F9
ED
ED
00
FB
1A
08
02
23
F7
D5
0B
02
10
0F
F0
02
E4
10
0F
EC
1B
EB
09
0B
ED
F4
12
1F
F3
0B
EB
06
F5
F9
0B
F1
15
ED
14
15
FF
F6
12
FC
02
08
EA
0E
FF
EF
12
EF
F5
00
0A
18
0F
DE
01
EE
22
F5
F6
0A
E6
E7
0E
F4
F9
18
0C
19
12
EF
00
F9
0D
EB
EE
17
EE
EC
FF
ED
0C
1C
13
20
19
E6
11
FE
18
E8
EC
1A
E8
EF
01
EA
00
05
13
1A
01
E6
10
0E
0B
EE
E5
11
E8
F4
FA
FA
0C
08
0E
14
01
EE
0D
0A
16
F0
ED
0D
F2
FB
05
FB
0C
06
0B
0D
F3
FE
FD
12
12
F6
F3
06
F6
FB
F9
06
02
F8
05
07
05
FD
04
09
FA
F8
06
02
FF
FE
0A
F7
FA
FC
05
FE
FF
FD
09
04
0B
F9
0A
FA
00
FA
FE
07
02
FB
F7
F6
04
09
05
F8
F8
F6
F7
F6
FF
00
F7
00
04
08
04
03
00
08
01
0A
FA
F9
F9
09
FD
F9
02
FF
0A
FB
F8
03
0A
09
03
FA
03
FC
FC
FF
FF
08
FA
06
05
FD
00
03
F9
F6
07
F8
04
07
FD
09
FE
00
FE
FC
09
05
05
06
FD
F0
09
FB
FF
01
F3
01
FD
EB
FE
FD
12
0E
04
07
FF
08
15
06
07
FE
FE
10
F5
E7
07
FA
10
15
07
04
02
F4
0D
04
14
FF
F6
08
F5
05
03
F0
F4
0C
08
08
0D
00
09
FB
02
06
FD
0E
EE
EB
0B
F8
FA
03
07
0B
0B
EB
0F
06
FB
08
EA
0D
ED
EB
0C
F3
07
F6
19
16
0D
E7
11
FB
09
F8
EB
1D
E3
E7
F2
F1
0C
0C
0A
20
14
E2
1F
00
09
FB
E3
19
EE
FB
EA
E6
0B
05
14
1A
0F
EC
2A
0F
10
08
F7
11
DF
E7
EA
DF
04
0F
1A
28
0D
E6
1E
0D
1A
FD
E2
12
EB
FB
F2
DE
02
EE
1B
28
14
D0
20
0B
08
00
E5
07
E7
E7
03
D9
14
DE
14
27
07
DC
1C
FE
1C
01
F0
10
F1
EB
03
F8
08
DD
18
1A
08
DC
05
04
17
09
F0
0A
EA
E9
03
EC
FC
E2
15
18
11
E4
F0
02
14
FA
E9
01
D9
FA
1B
F4
0B
E5
0F
1D
01
E2
F9
F2
0F
00
FD
F7
DD
F5
17
FD
06
F1
13
2C
05
E9
FC
07
0E
10
F9
FE
E8
F7
16
E9
EE
01
0D
2C
0E
FD
11
09
13
01
04
01
E4
EE
0F
EB
EE
05
05
1A
13
F6
20
F8
16
F3
F8
05
E8
E9
09
E6
E4
0C
08
2A
10
08
0D
F6
19
DE
F6
15
F3
FC
FD
F5
EA
09
11
24
0B
FD
06
FC
10
E9
EC
0C
F1
F4
0B
F5
F6
FB
0E
1F
13
F3
12
F0
17
E7
F6
17
EA
EA
FC
EE
F4
09
0D
15
03
FB
F8
07
1B
E8
E5
18
E1
E8
F6
E7
0E
FF
04
0A
10
FC
15
0E
11
F4
EB
0B
F2
05
02
F6
0D
E9
10
02
FE
F4
00
00
EC
03
03
FD
F7
02
F6
FD
14
00
06
FD
FA
F3
00
10
F4
09
04
F0
F9
00
F7
0B
00
FF
02
FC
01
01
F9
02
08
FE
08
FB
FF
06
08
F7
05
FE
FE
FF
F8
03
03
01
F8
FB
F9
06
01
F9
09
09
FB
FE
F6
02
FF
05
FB
02
02
F5
F9
0A
01
F9
09
F5
FE
FB
01
05
0B
FD
00
FF
F8
FE
F6
F7
FB
F2
04
0A
15
0C
FD
0F
FB
F1
ED
04
FE
0E
00
F4
01
F0
05
F1
03
07
FD
12
F4
FA
13
00
04
03
ED
15
00
F8
0C
00
F3
08
F5
0C
F9
07
07
F2
FB
0C
02
FD
0A
F1
0A
0E
12
0E
00
0B
0B
F0
F8
F4
F5
F0
FB
FC
EE
EE
05
02
12
09
00
1C
0D
E6
03
FA
EA
EC
F6
FF
FE
F6
0E
F5
19
0F
FC
16
0F
E1
11
06
E6
F4
EC
0A
FE
01
08
E3
13
0D
05
1E
03
ED
15
06
E0
FD
EF
0D
E4
00
F7
DF
1E
14
0B
19
05
DB
1A
14
DD
09
F6
09
F2
12
FF
E2
1E
04
FF
1D
11
DD
20
0A
E7
09
F1
FE
FE
19
07
DC
1F
E7
02
14
0F
E5
2A
14
DD
FD
EC
0C
EB
09
1B
E3
23
F7
04
15
10
E0
1C
10
E9
F8
E5
FA
F2
FF
21
E8
22
D4
FF
27
FE
D4
14
0D
F1
03
E8
FE
F1
07
26
E3
18
CF
FA
24
0D
EF
17
09
F1
F6
DB
08
F5
FD
18
F6
20
EB
FE
27
0A
EA
FF
00
F7
E8
E1
F5
E6
0C
25
F0
15
F0
FF
13
0E
FD
10
F9
FA
FB
F2
FB
F5
0A
13
F3
0C
FB
FC
22
0C
08
15
05
FB
EB
F6
0B
FA
03
10
E6
FD
01
F5
1E
1E
02
1F
F6
10
F1
F8
0A
FD
F9
15
EB
F6
FB
F5
24
18
F8
0A
EF
FD
EB
01
00
F1
09
0F
EE
F4
0A
F1
17
14
0E
0D
F0
04
E2
F2
04
05
00
13
E9
E9
05
FA
12
0E
01
0C
FE
1F
DF
FA
FD
FB
FB
FB
E9
DA
12
0A
1B
04
08
0D
06
26
F6
E7
11
F8
01
F5
F7
DB
0B
0C
12
01
00
07
05
1E
DE
EA
21
FA
FB
03
EE
FB
04
FF
0D
0B
F7
07
09
16
DF
F6
0F
F6
11
01
09
07
FF
F4
FC
FE
FC
19
05
FA
0B
F6
05
F0
F6
0B
EF
EF
FD
05
06
05
04
0B
03
04
03
FC
10
01
04
F6
F9
FB
00
07
F7
F8
06
0B
06
FB
FA
05
FE
FB
04
05
0B
FF
08
06
F7
FB
F7
FE
F6
06
02
F9
FF
00
02
10
FE
01
00
FA
FE
FB
04
00
F0
F7
F6
FF
F7
04
08
FC
17
15
0D
F5
FE
05
F4
F4
FC
03
0F
FE
F9
0F
10
08
10
11
11
E7
01
0F
04
09
FD
F0
F6
FA
F0
00
F4
02
0C
FD
03
FC
F5
21
F2
EE
EF
E4
F8
02
0B
FB
04
F6
08
13
10
FE
08
15
D9
00
E8
DB
F2
F4
F8
F6
12
06
F8
13
14
FB
FC
15
E6
00
0E
E1
06
00
F4
00
16
01
F4
15
10
F7
04
17
E7
03
00
ED
00
F6
ED
FE
08
FD
F6
22
0A
0F
FF
0B
E8
0C
07
E3
F1
F7
F9
03
1B
F9
FA
1F
02
00
04
05
E6
06
02
E6
F5
FC
F8
07
14
10
EF
13
F1
06
15
FC
E1
0D
03
F2
01
F8
FF
F9
18
0F
F4
1D
E6
F8
05
FF
F2
13
05
EA
FA
F5
F9
04
20
0C
FF
13
E4
F4
07
06
EF
17
FF
F5
08
FA
F6
05
19
13
02
18
F3
F9
0D
F5
E5
FE
07
F1
07
FA
FB
07
1B
08
FE
22
ED
07
0E
F6
F0
0D
01
01
FD
F1
F5
0A
1E
0A
FB
11
F5
FD
13
FA
F8
06
FD
02
02
EF
F9
08
23
0F
FC
10
F1
FB
0C
FD
04
FF
05
11
ED
EC
FB
F6
18
0F
EC
0D
EA
0A
0C
07
05
05
02
08
F0
E8
07
FD
15
17
F9
13
EE
01
23
03
11
0A
F5
0F
ED
FF
FA
F5
15
05
05
FE
FB
FD
17
0D
06
F8
F4
00
F3
FE
0C
01
0D
FA
00
04
06
0C
10
02
01
F7
E9
0D
F4
F3
09
FE
11
0B
F8
F4
FD
01
1F
08
01
F9
E3
15
F1
EE
0A
0C
03
0A
FD
E4
F5
0C
1C
0E
0E
EE
DF
14
F1
FB
12
FE
0B
02
E6
D9
09
00
16
04
10
F8
E2
25
ED
F8
09
0F
1F
03
FA
D3
0B
FF
06
0D
1A
FB
FF
1A
DF
12
07
16
0F
04
F8
F5
F6
F2
09
F9
07
08
1B
23
EE
FB
04
11
00
0F
FE
0A
F7
02
03
E6
F8
09
13
17
EC
03
F8
F1
F5
00
F3
02
FB
12
00
F6
FB
09
09
05
EF
F1
0D
FB
03
06
09
00
04
08
0A
FD
09
F7
F6
0A
FE
FB
F6
FA
F6
00
F7
05
0A
02
FC
02
FF
0A
F7
01
04
01
0A
F4
FF
F9
04
03
0C
00
09
FF
03
F1
F9
F8
0E
03
F3
F3
12
FE
0E
09
06
F2
F8
05
05
FB
03
E9
0F
14
F6
F9
00
F9
11
10
1E
09
E7
23
E4
F5
EE
D4
0A
0D
EF
F2
0B
FD
16
10
11
04
F2
14
FC
FD
F0
DF
FF
0A
DC
04
0D
F9
12
12
06
01
F5
13
F7
FE
F7
DB
14
04
F3
04
1E
03
00
0A
0D
00
FD
10
F6
06
0F
EC
01
03
FB
F1
0D
F9
02
FA
0B
04
FC
13
FC
06
03
E6
0F
01
FC
07
10
02
F1
05
F6
FD
0A
0E
FE
07
03
F2
05
F8
00
09
0E
02
EC
0A
F9
FA
FF
11
FE
0E
0E
F1
FE
04
F7
05
12
11
08
10
EF
F0
F0
FF
05
0D
19
03
10
FE
03
13
0E
10
0F
13
EC
FE
01
02
F6
09
1B
09
0F
03
06
10
05
12
0A
09
F3
FC
EE
F7
FA
FF
12
FB
08
F7
FD
03
10
12
0B
0F
F1
FD
04
00
F5
04
13
0A
FE
04
0D
FC
16
03
09
19
FE
03
F5
FD
FD
F2
0B
00
05
EF
FC
FD
1D
0F
FA
1D
F7
14
01
F3
00
0B
07
00
F4
FF
FE
04
22
01
F2
0D
FC
05
05
F9
05
00
0E
12
EB
FF
0F
FB
18
0B
F8
0E
EE
16
0B
FF
FF
FB
03
08
F1
F6
00
FF
19
12
F2
09
F2
07
02
01
F6
FE
F5
0E
F8
F9
08
05
17
11
00
04
EC
00
07
FE
FA
EE
02
23
FB
07
0A
03
15
02
04
03
F4
13
1B
F2
05
EE
F5
18
FF
0D
04
F5
13
0B
ED
FC
FC
11
0B
F6
05
EE
F2
16
08
0F
03
00
1B
03
F7
E8
FA
0E
19
05
04
DF
D9
20
FB
04
0A
08
15
0B
F1
EA
FC
FD
14
08
09
F9
EF
23
EB
0A
08
09
26
09
F0
E9
FF
F3
01
F1
0D
18
1E
2B
E1
02
08
05
07
02
E9
F7
F9
EC
09
F2
FB
10
0D
27
EA
F4
07
FE
F8
FE
FA
00
06
0F
0F
EE
01
07
F9
FF
F0
F1
06
0A
FE
FE
08
08
05
F7
07
FA
FE
FE
F7
FA
F6
F9
02
EF
01
04
F1
09
01
F9
0B
00
F6
10
F2
02
01
F9
FA
FC
05
FD
04
F2
13
03
15
09
05
0F
00
F5
02
FD
F5
E3
0B
03
13
11
04
F4
F0
0E
00
0B
FD
E2
06
F0
DE
E9
0E
F9
06
0D
1C
0C
EA
18
F1
FD
FB
CF
0A
03
F3
03
13
06
05
F8
01
0E
F1
13
06
06
01
D2
02
F7
EF
01
23
FB
0C
F8
08
05
EF
18
FF
09
09
E0
0A
F3
E7
FD
10
04
04
02
FB
04
FB
0D
0D
08
02
E4
0E
E5
FE
0E
10
04
F2
FB
FF
07
FC
0E
0C
0A
01
ED
0D
E8
F2
06
16
01
08
07
F8
FE
F8
18
0A
13
0E
F0
01
E9
FA
08
0A
0E
01
FF
F0
EE
FE
0E
0B
02
0A
EF
0F
F2
F4
08
FF
0A
0E
0E
F7
F5
00
0E
04
07
10
00
09
EA
06
06
F5
11
FF
0F
EB
E7
F2
01
FD
0F
14
01
08
FD
FC
18
FB
1B
FB
0D
F8
E8
F0
0D
FA
01
0E
07
0B
F4
FE
05
FB
16
03
1D
FA
EF
F5
06
FC
07
1B
09
12
FA
13
13
F5
0A
06
14
F4
F0
FE
05
FB
0F
17
0A
0E
01
10
05
F8
07
08
16
F9
EC
00
07
FB
0D
14
FC
04
FC
11
09
FC
05
09
15
F2
F6
02
07
08
12
10
FF
01
07
10
06
F4
0E
F9
19
07
EB
FA
06
0E
0B
0C
07
12
09
05
09
01
0B
FA
06
01
00
FE
F6
0B
0A
03
14
04
FB
FF
04
02
15
08
0E
04
02
FE
01
0B
0F
02
16
FE
0C
0C
FC
0A
04
09
09
F5
09
FC
00
0D
07
01
04
06
F5
06
00
09
0B
F3
EB
FC
09
01
F0
13
FC
F4
0B
FD
FE
03
16
1E
06
F1
EF
07
06
0A
F8
FE
E8
E1
28
F6
0B
01
08
1E
06
EB
DB
16
FF
23
FE
06
F4
E6
34
00
02
FC
02
29
17
EE
E7
01
F9
19
03
FC
0C
12
31
E5
0A
00
FF
24
FE
EF
E2
0A
F1
10
08
09
FC
FB
16
F3
0A
FA
FB
03
08
F2
F0
FA
09
00
04
F5
02
F5
15
FC
F1
00
FA
FD
03
FF
01
04
F8
0B
02
00
FB
FA
F7
FB
02
02
F9
17
12
06
04
FC
F2
12
1A
F4
08
FC
F3
01
FD
EA
F5
F2
E6
0A
FE
FB
10
06
10
17
20
13
FD
07
FF
01
DE
FA
FE
21
03
11
FF
FC
12
00
17
0C
D0
0E
FE
E7
E4
21
02
11
14
0D
10
DE
09
E2
08
06
D3
F9
F3
E8
F8
20
0B
00
02
05
09
EE
13
0D
FF
F2
DF
F8
E2
E3
00
1D
09
FA
00
FF
12
F4
0D
13
0E
FF
E5
05
E5
EE
00
13
F7
04
F0
0C
09
05
0F
0D
0B
08
EB
FE
DB
02
02
19
05
05
F4
F7
FD
FE
0B
04
14
04
FD
0B
F1
04
0A
14
01
09
00
EC
FF
00
14
15
0A
05
03
0C
EB
FC
0C
13
08
07
03
EB
F7
FC
0E
18
06
06
08
11
EC
08
06
02
0D
FB
04
EB
FA
09
11
1D
07
0B
FD
03
F1
0C
03
F0
12
01
15
EA
E6
F9
12
0B
FF
07
0C
10
F6
FC
12
E5
1D
03
1D
FA
E9
F8
0E
00
07
13
0B
1D
FB
08
04
ED
19
FB
16
FC
E8
03
1B
0A
02
16
02
11
01
09
19
E6
1A
0E
29
FE
E7
E9
1C
FE
16
1C
11
11
FC
13
16
E5
0F
06
14
09
F3
EC
11
0D
14
21
0E
17
03
0C
14
FB
11
10
13
02
FC
FD
01
16
0E
0C
FB
0C
02
12
09
01
0F
15
0C
0C
F4
F4
F3
11
18
04
FD
11
FD
0B
0B
0B
10
1E
08
FD
00
FF
FF
14
13
01
0C
0D
0B
0A
08
00
09
0B
0A
0C
FC
F4
04
0C
09
FB
0C
11
03
FC
0B
14
03
0C
FF
0D
07
FE
F6
0E
19
F7
12
0B
FD
04
06
17
01
04
01
FF
0D
00
F7
12
0C
FE
0E
14
FF
02
18
18
F9
F9
EF
FC
06
F9
F6
14
06
E7
18
06
FD
01
1E
2C
FA
E8
DE
F5
F8
1C
F4
15
19
07
22
F3
F5
0C
17
28
0B
E4
CF
00
F5
1E
F8
14
07
13
32
E6
1B
F8
07
1F
11
FB
F2
FF
FB
13
0D
04
F5
F0
19
ED
0A
F6
F7
08
03
F6
F3
0A
F9
03
F4
F7
0F
FC
09
F6
FA
04
0F
14
F7
F2
03
FD
0E
02
FB
FD
F6
F3
F5
F6
F9
15
EF
F5
FB
0F
01
EC
13
10
FC
13
12
08
EC
0F
F9
EC
F4
0E
FB
FC
F5
03
09
09
0F
13
FE
FE
F2
F7
FE
01
EE
16
F9
19
01
0E
07
06
08
00
11
02
E6
06
FC
E7
EF
19
F6
13
12
11
1F
EA
1D
F6
04
FB
CC
F5
EF
D9
03
13
F8
10
FB
0A
12
EB
0E
FF
10
FD
E5
01
EF
EF
0F
15
FF
11
04
F4
0A
EC
10
0B
11
08
F0
01
E0
F7
FE
1B
F1
0F
F1
F9
FD
03
06
0E
1C
01
FE
F6
ED
F9
0D
14
F9
00
FE
FB
F2
04
0F
0D
18
0A
FA
0C
EE
0D
08
08
06
09
F6
EC
FA
F9
0D
15
14
07
00
02
F0
00
07
0B
08
09
09
F7
FB
F9
00
05
16
0B
04
0D
F0
FE
01
FF
07
FE
03
F2
F9
00
0A
1D
0C
0B
0E
08
F6
FB
03
00
16
0C
0B
E7
00
FE
03
16
06
0C
09
01
F2
0B
12
EF
16
13
1E
F6
00
F8
FF
0A
08
0A
04
0B
03
FF
FC
EB
21
11
19
09
FE
FB
0C
07
0C
0C
05
15
FD
10
FE
EB
13
0C
2A
01
FE
F1
00
0A
05
0D
FD
29
00
00
0C
F6
0F
0C
28
11
05
F0
03
03
0C
13
F2
13
F2
0A
FE
0B
00
12
16
16
F9
E6
F8
12
06
13
F1
0A
F6
05
13
08
0C
13
10
0A
09
F3
03
12
1B
09
FE
12
01
FA
FF
11
09
15
0B
17
01
ED
F4
09
19
03
FF
06
0A
00
FE
1D
05
10
0E
0B
01
FC
F7
16
19
09
F9
03
05
00
0D
15
FE
02
FF
15
04
F7
05
12
17
06
06
0A
0A
F8
01
21
00
03
05
1B
10
EC
03
0C
1D
FF
FE
09
00
F7
01
27
FD
FF
E0
10
08
F1
EE
1D
1A
0E
19
F6
01
02
1E
2E
FC
E9
CA
01
F7
03
DF
23
17
0C
28
E5
06
17
1A
34
09
F7
D7
02
E6
0E
F9
22
17
FB
29
E4
20
FD
17
22
FC
FF
FC
F9
F7
0B
EB
11
0B
09
2A
F2
18
DC
13
18
FC
FD
FC
0E
E5
0C
ED
F7
14
09
14
00
FD
F5
FA
02
06
0A
02
F4
07
00
0D
0E
0C
14
F7
11
FE
F1
F7
F1
01
15
EF
FA
0F
05
0A
0A
15
02
F7
0B
F1
EB
F0
04
03
03
FB
F5
08
05
02
16
08
F6
E8
FB
F1
FD
F8
03
09
05
06
0E
01
00
11
01
0B
FF
D9
F6
F7
E7
E8
10
FD
07
0C
14
09
EF
0A
EC
17
09
D8
FD
F3
D9
04
15
FC
03
FE
0C
0D
E4
05
05
13
19
F0
F3
E3
E5
0A
03
F8
13
0D
06
F5
FB
10
FE
0D
03
F9
F9
F5
F8
09
0B
00
14
04
02
05
0A
08
03
10
09
02
F3
F2
FA
0B
10
FF
FF
F1
01
F8
04
0E
0C
13
11
09
06
F1
05
0E
03
FB
02
02
F3
04
FF
F8
14
09
18
05
04
F4
04
0D
0C
09
FE
F5
EA
FB
0E
04
0D
0E
16
18
FB
F7
FE
FE
FE
0C
11
E6
EB
00
0C
F2
15
0C
0D
1E
00
07
FF
FC
F8
11
0F
F7
F6
FF
12
F9
18
12
0E
1A
F9
FB
01
F9
F1
20
1D
10
0D
0B
FC
FD
15
11
0D
0A
06
09
01
EE
E0
10
25
32
11
04
05
FB
03
14
08
F7
13
FC
02
01
F6
05
15
26
12
01
FA
05
09
0E
FE
E3
2A
F4
EE
02
05
FA
17
18
0D
0A
E4
0A
16
08
08
E7
22
FD
F6
01
15
FF
19
13
0F
12
E0
F2
15
18
FF
E4
20
FD
FD
12
1A
02
14
10
12
04
D2
02
17
19
02
E3
0D
01
01
01
1D
F7
16
08
1A
0C
D8
F2
0D
19
11
E5
FF
00
FD
04
16
03
09
10
11
0F
E6
07
05
1E
FC
F5
F5
05
01
12
11
FD
0D
03
12
08
F4
02
10
22
FA
FC
F5
0B
01
0D
1E
F4
0F
08
1A
12
F4
03
06
29
02
FA
F3
08
F7
15
1D
09
E8
F3
07
13
FD
E7
19
1D
0A
14
E4
07
FF
18
31
07
EF
E0
22
E5
18
D3
24
2E
0A
25
EA
14
13
1C
42
0A
EF
D8
1A
CC
29
D4
31
29
1B
31
EB
1D
DE
09
28
03
00
F3
12
EC
19
E7
04
21
0E
27
F4
0E
D5
F0
FB
17
00
F1
09
E7
16
01
17
1D
F8
05
01
FF
F7
FD
03
FD
0E
04
F0
0F
F9
06
FE
0E
0A
FD
0D
00
EE
F3
FF
03
07
F5
F9
01
08
04
11
03
F9
F4
07
06
F4
EC
FA
0C
0B
F2
0B
FF
09
01
11
16
F2
D9
0C
ED
E9
E7
12
01
0F
11
06
05
04
0F
04
1F
FD
CC
FB
F9
DE
04
00
EF
14
FE
0B
01
FF
09
FF
0F
03
E6
F0
FA
EE
FB
01
00
F6
0A
FF
03
FB
03
11
17
1C
F3
F2
EF
FF
FD
02
F2
04
03
02
F6
FA
F8
05
0E
1D
01
FF
06
06
06
07
FE
03
F4
F6
F0
04
03
12
08
0D
0D
E7
F2
08
13
07
00
02
ED
F0
03
0F
03
0C
08
16
1D
F5
07
0D
0B
01
FF
0C
E4
E4
00
14
FB
1F
0A
0F
17
F6
00
14
0E
EF
F4
0F
EC
F0
01
0C
F4
18
0F
09
1C
FC
08
09
02
EE
02
0C
EB
FE
F8
17
F8
14
0A
07
1B
F7
07
05
0E
FD
05
14
F0
05
0E
16
F2
13
05
04
1A
F3
F9
14
01
FE
0E
1D
05
14
0A
14
F8
18
1B
FF
12
EC
EF
FD
FB
EE
08
21
24
20
0C
14
F4
04
15
05
FB
0C
E7
F7
F9
F5
F3
27
14
17
04
09
F7
14
03
EA
F1
17
E6
E7
FB
0A
E3
1A
11
23
0D
EA
0F
1A
01
EC
E5
21
EA
E3
02
08
F0
0B
19
07
08
DD
FD
17
FD
FA
DE
0C
F4
F4
0F
0A
EA
0C
1A
11
0B
E2
FB
13
0C
08
DE
0E
08
FE
0F
0D
EB
0F
0F
0C
08
D9
07
0B
13
07
EA
F9
FE
02
0F
03
F1
04
13
0B
11
F0
03
08
16
08
DF
F2
FC
07
0A
06
F8
14
0B
0C
16
EF
00
0B
25
08
EC
DE
04
F9
03
0B
F3
06
0F
14
14
E7
F8
09
2E
FB
EE
DF
0C
F6
15
09
F5
E6
08
1E
07
EA
F5
F4
2F
15
0C
E7
07
0F
10
2D
FF
E3
E1
39
E1
08
D5
16
33
0C
27
DD
14
0F
05
44
05
E2
D7
30
CA
1F
DD
2D
18
0C
31
ED
26
E1
FA
1B
12
EA
E9
21
DA
10
DC
1A
2F
0C
23
F9
0F
CF
05
F8
02
08
02
EC
FA
F2
F4
F8
16
10
00
01
0B
F2
F4
FF
FB
0C
01
01
05
05
F8
0E
01
12
F1
0D
01
FE
F9
05
05
11
ED
04
0E
18
09
10
09
F8
E8
F7
02
EC
DE
FB
05
10
00
F6
04
18
0B
20
20
01
D8
FC
E1
DE
F8
00
F2
19
0F
FA
04
0E
17
FD
10
F7
D4
F3
EA
E9
F3
08
EF
17
00
03
EF
12
0E
0B
0D
01
E6
F2
F1
FC
02
00
F4
0D
F4
F8
F6
0D
02
0B
18
15
0B
F2
0A
0F
14
EE
F6
FA
F6
F5
F7
09
01
10
10
07
0E
F8
01
0F
15
E9
F7
0A
E9
F4
08
11
04
0C
10
03
20
EA
FD
10
10
F6
F9
17
ED
F3
FD
06
05
15
16
04
1D
F4
02
17
1B
EF
F9
09
EC
E9
00
05
08
05
07
FB
26
F8
05
08
10
F5
02
12
E7
F2
04
01
09
10
01
F9
1D
EA
FD
16
17
F9
FA
1B
E5
0B
03
07
15
14
11
EF
14
F2
FC
0C
19
0F
0D
18
E5
04
0C
0D
02
14
02
EA
1A
DE
EF
0D
11
01
04
1D
0D
0D
F8
1F
FA
03
0E
EE
1C
C6
CA
FC
0C
EA
EA
26
1C
14
FB
21
FB
03
09
F4
0C
EF
D6
F2
01
FF
D9
27
0E
1D
F2
0B
08
07
EE
ED
FC
0E
E6
DE
0B
09
E7
1D
01
0B
00
00
19
0A
F7
E8
F7
01
EE
FC
06
06
F3
1B
0A
0C
F3
E7
10
04
02
FE
F2
0C
F8
04
03
F4
FF
0F
15
FD
FD
F0
0C
0F
00
00
F4
FD
F6
FC
0F
FF
F8
0A
13
01
0C
EF
0D
02
0F
08
E6
F6
01
FD
13
F6
E9
11
1F
09
0C
E4
0C
FA
14
16
E5
F3
06
11
0B
EF
E4
03
0D
0E
13
E1
02
FB
13
0A
EC
DF
06
15
0B
DE
EB
05
0E
0E
16
DB
FB
EB
19
02
F4
EB
F3
12
14
EA
F6
F3
0A
1D
18
DF
F9
DF
2F
08
0D
DF
F8
11
1C
0D
F5
D4
09
26
FA
F3
DE
E7
38
1E
1F
EA
04
1A
F8
2D
01
F0
F8
2E
C3
18
CE
16
26
11
23
FF
0D
E7
07
2F
15
F6
FF
09
DA
00
D1
1D
2B
0E
2A
01
1D
D7
FB
04
0D
00
FC
F5
F5
00
F0
FA
06
04
0D
FE
0B
F4
07
FC
F7
0B
FE
F9
FE
FB
09
03
0C
09
F7
F9
F9
FC
F0
F3
07
15
EA
FA
17
15
05
16
0D
FF
F4
FC
EF
EE
E8
05
01
17
E2
03
09
1F
1C
18
1B
F4
E3
01
EA
ED
F0
FD
E9
16
00
F3
F6
1B
02
0A
06
EA
E1
E6
F0
E4
FE
E6
F7
1B
04
12
EF
0B
07
08
10
09
F9
F4
F7
F3
14
E6
F8
10
F8
F1
F6
FF
01
0B
12
FF
09
E5
0C
1B
24
ED
00
12
E2
F6
F4
10
05
19
07
F0
1C
E6
08
2E
0C
E7
F9
0E
DF
F9
02
08
03
13
07
EF
0F
D6
0B
22
10
EB
FD
15
E9
F5
0F
00
10
12
00
F7
17
F3
02
0E
09
F2
02
0D
EA
F3
0B
F8
12
0A
05
EA
1F
F3
FE
11
13
00
0C
08
E7
FD
F9
07
1D
15
F9
F2
14
ED
FF
0E
1E
07
0D
0A
E9
05
0B
F7
17
1B
FD
E5
15
D4
05
12
18
31
FF
F5
FF
0C
09
0D
14
0B
F6
D9
1D
CB
EE
13
10
16
F8
0E
0F
11
F2
0E
F5
FB
EC
E1
28
C5
FB
06
16
02
E6
1F
23
23
EA
19
FD
FA
F4
F2
1D
EC
00
E1
04
F9
E0
28
11
0E
F8
0E
19
FF
EC
F1
0F
04
FC
EB
04
FF
EC
23
FE
FF
F4
FA
2D
F3
EF
EA
09
09
E9
FB
18
F1
EE
0D
F9
FC
F5
F1
1E
FF
F2
00
FA
07
F0
FA
05
F9
01
0C
08
F8
FD
F6
18
09
00
02
F1
FF
F1
00
08
F9
ED
0B
0F
E7
FD
F9
00
06
FD
0C
01
04
0C
11
0B
E1
E5
04
0B
E5
0F
F0
01
0D
FD
07
FB
E6
04
0A
10
E4
E1
09
04
DC
17
EA
00
F9
07
0E
F1
D7
08
1D
11
D5
E4
FD
0D
E8
2C
DD
06
EA
17
FC
FB
D7
FF
17
13
C9
ED
F7
11
F8
28
D9
FB
DD
21
F4
F8
E2
F7
22
0C
F1
FB
EB
24
05
37
D2
F2
D7
20
00
F8
F3
F6
1E
E3
0D
F4
FF
06
12
FB
F9
EC
02
1C
18
F7
11
04
E9
EB
21
06
F5
01
09
E3
01
E3
1F
1C
1E
00
0B
05
E3
EE
FD
09
0F
FE
F9
F2
13
FA
FB
07
13
F1
05
FC
EB
F9
01
00
FC
0A
FD
0C
0C
FE
F9
F8
07
F7
FB
FA
F6
F7
FC
F9
10
F2
EF
0F
05
FA
14
03
06
F9
0C
F8
F4
E4
F9
FB
1A
F6
F4
14
1E
06
20
20
F8
E7
0C
F1
E5
FB
EE
04
12
01
FF
ED
14
10
0E
01
FA
DC
DC
F8
EF
1B
E2
F6
1B
F4
14
E5
FB
0C
20
05
E9
F6
E0
FE
09
1A
EA
F4
0A
F1
01
FD
0D
08
17
06
EF
0D
DF
0C
1C
18
EE
02
06
E0
00
14
0E
0A
18
FC
E3
08
E8
06
23
16
E7
FD
14
F4
F9
06
10
0A
16
F9
EF
02
EE
14
26
15
F5
FE
09
FD
F8
16
07
04
10
F7
F3
14
EC
10
10
05
04
05
0D
FB
00
0E
F9
16
0E
F6
F5
04
E6
1A
1A
15
05
0C
FD
EC
FC
12
06
1E
0E
F3
FD
0B
E9
17
0B
09
25
FA
F0
E1
09
14
FD
0F
05
ED
F9
0C
D6
18
0D
0B
31
F9
EB
0C
06
03
06
0A
01
F1
F7
16
E0
18
0E
11
1A
EF
04
26
11
EC
14
F9
ED
EE
FE
29
E8
1F
FE
FB
F9
E9
19
15
02
FD
15
07
FC
EC
F9
1C
FA
19
EE
11
06
E2
2C
09
FE
08
07
1F
EB
F0
F7
17
06
0F
FD
15
FE
ED
1F
05
FD
03
F2
25
FB
F5
FA
0D
07
01
FC
0C
02
EF
10
05
FB
FD
F5
14
00
F4
F3
03
0E
09
01
12
FD
FE
05
00
EC
00
F5
16
10
F5
0B
00
01
03
06
13
F8
EA
FB
07
E9
00
09
13
0D
F1
08
F9
EF
09
0B
16
E8
E6
FE
FC
CD
03
02
FD
14
F8
0D
06
E5
01
0B
0E
E7
E7
F2
F9
CF
13
03
06
0A
FA
00
01
E0
FD
15
0C
DE
F8
EA
F2
CF
16
F8
F2
F1
FD
FC
F8
E4
01
1F
02
D8
01
EB
FB
E8
31
F4
08
E7
0B
FF
F2
ED
EC
2E
E3
E2
0D
DE
08
E0
2A
F7
F7
E2
15
02
D2
FE
EC
18
E7
1C
F2
F2
FA
FF
15
FB
EF
F7
05
22
DE
0F
06
E6
E4
27
F0
F2
14
09
FA
0A
E0
14
FE
1D
EE
10
11
E0
EF
0D
FC
01
0D
F0
FF
04
F1
0C
06
1B
F3
05
00
E6
F3
08
12
ED
F9
07
FC
04
ED
01
10
F4
0B
02
00
03
00
04
FD
11
04
FB
F6
FF
10
FE
05
F7
FF
F8
06
F3
F8
FE
06
17
E7
FB
10
0D
0C
1E
1C
FC
F8
FE
EE
EE
06
FF
04
1B
F2
07
F2
1A
0C
05
FE
F4
DC
E9
FF
00
14
FA
06
1F
F0
06
F4
FA
15
2D
F2
E3
E2
E4
1B
09
0C
F4
08
0F
E5
04
13
FC
14
10
F5
E6
F4
DF
0E
1F
06
E8
00
02
F5
00
0B
0A
0D
14
02
E9
F2
E2
13
2B
04
E9
FF
FD
F5
FA
1C
07
09
0F
F6
00
ED
F1
0E
1F
02
FB
0B
F9
FC
F4
11
00
09
15
F3
F3
FE
F4
15
1E
0E
F8
03
F9
01
FC
14
0C
0E
0F
FF
FB
09
F7
16
0F
02
06
FA
E1
F5
FF
0B
FB
0B
08
FA
06
0A
ED
19
1A
0F
1C
F3
E1
E8
0B
19
FE
11
05
FE
06
0B
E7
1B
15
09
1C
FA
EB
0D
FE
04
F9
04
FC
E9
07
1B
EA
24
13
08
0D
DD
11
21
0C
08
16
00
EF
F8
0B
14
F6
24
EB
FD
09
F3
1D
1B
06
01
12
09
EC
FC
F9
21
FF
1C
EE
0A
03
EC
1F
02
FE
06
0A
20
EE
F2
07
1B
02
0E
F2
0C
00
EC
16
ED
02
0A
F0
2A
EB
F8
00
04
19
0B
08
08
04
F4
1A
FA
01
FA
F5
20
04
F3
0A
F6
09
13
06
0C
FD
EE
13
00
EF
01
05
12
14
FA
0B
F1
09
03
01
01
00
F0
0B
F4
EC
0B
F9
19
17
F6
02
EB
02
FA
04
FD
F9
EA
FA
F7
E1
03
0A
11
20
FC
02
ED
E8
FE
13
FB
E6
03
F4
00
DD
06
00
10
07
F2
F7
E8
DF
FD
12
F9
E4
FD
ED
E6
E5
19
0D
04
12
0B
F7
F5
E7
F5
10
F4
F0
0E
E8
FB
E8
14
03
09
0E
12
FA
E8
F9
EB
13
F3
ED
09
EA
0D
F4
25
06
F9
02
12
07
D9
FB
F7
17
E3
08
FC
F8
02
FC
1E
00
EA
F8
12
1E
F6
FD
0F
03
E2
1D
F2
F7
15
F3
F9
FB
DF
0E
0D
1D
EC
15
21
E7
F3
0E
F1
05
05
FD
FE
0A
F0
0C
0C
11
F1
11
14
ED
F9
13
12
EF
FE
F8
04
03
FA
10
0A
05
02
F8
10
05
04
F7
0D
11
FF
FD
02
F0
10
FF
FE
FE
F3
01
FD
EE
FF
1C
12
12
FF
F1
0E
12
00
08
FD
E3
FA
03
F8
E4
F8
0A
F3
0B
F5
F1
05
0D
19
05
F6
FA
EA
FA
09
F6
06
00
08
0A
FD
03
F4
F9
09
20
EF
06
D7
F9
15
0A
F7
F8
FF
EF
08
0D
18
03
FF
16
0C
FC
DD
FD
0E
14
FE
FB
02
EF
02
0B
11
0A
07
11
F7
FE
E1
FE
1E
1C
05
F6
05
E9
FD
00
16
03
05
09
FC
F9
F3
F5
17
1D
10
FA
F8
EC
F6
FC
1F
08
03
0B
F3
02
F6
05
1F
16
FC
0C
03
F3
F8
F6
14
12
FF
0B
F5
F7
FF
02
22
1D
06
09
07
EB
FB
F1
11
FC
07
07
F9
08
F9
06
14
26
0A
13
F6
EB
F6
09
0C
F9
12
F5
F8
FB
03
FC
1C
13
02
11
F6
FC
13
FE
11
FF
0A
EB
F7
01
1C
F3
16
03
02
17
EF
0D
1D
04
08
14
FF
EF
FC
FF
14
FB
0F
F8
F6
13
EA
27
12
F5
12
1B
07
DA
FE
00
1A
0C
12
F8
FF
13
EB
14
F8
FE
0F
03
23
E6
F1
FC
07
0F
17
FA
0E
0F
F7
1B
F8
09
19
FA
1D
FF
F2
10
07
0C
18
01
FF
00
EE
0F
E7
F6
03
F7
27
15
F8
04
EF
0A
0D
04
03
0D
F7
03
F2
06
04
04
18
16
F9
0F
F3
FE
F7
00
FF
02
F7
FB
02
F2
0B
0A
21
22
F5
00
E6
E4
F2
03
FD
F6
F5
F6
00
E4
F9
0B
16
18
05
F4
E5
DF
F9
0C
01
F8
09
F7
FB
E6
03
18
11
14
0C
03
E2
F1
EE
09
F6
F9
06
0C
F6
D8
0E
0D
0A
01
0B
00
E1
E5
F9
07
F3
FD
12
02
01
F0
08
09
04
11
0C
F8
E6
F9
EC
11
EC
FC
10
E2
10
F1
10
11
ED
04
1A
14
E7
F6
F4
FB
DD
09
F7
E5
0B
FF
21
08
E9
FC
0E
24
05
03
FD
F2
DD
1A
EB
F0
1C
FA
01
E6
DF
14
03
14
E2
13
2B
E9
F7
03
F7
ED
13
ED
13
FE
FF
02
0E
08
FA
0B
12
EC
F4
FC
06
FC
F4
F8
07
F8
00
0B
09
09
F3
02
F6
02
07
08
12
06
0B
0A
F1
08
13
F9
FC
F6
FA
F3
FC
F6
FA
15
0A
06
1B
F9
FA
12
10
E9
05
FE
F4
FF
F0
E7
FA
0C
0E
FF
16
F6
F3
17
FC
F3
11
07
EF
EC
17
F0
FD
09
FB
03
25
10
FA
F2
F7
1A
0E
04
E6
FC
FF
EF
EB
F6
FE
F0
1A
1C
0F
ED
07
14
FF
04
E2
FC
0B
06
EF
FB
EF
EF
FF
0A
18
FF
08
00
04
0C
ED
0D
15
18
02
F4
EE
F6
08
FB
26
F3
04
06
F7
F8
E3
07
0D
1B
0A
EE
F5
F9
F4
FB
20
F9
00
01
F3
07
EA
0B
11
24
04
F5
EC
E9
04
E3
1C
FC
F6
F3
00
03
ED
03
0E
1C
FF
EE
00
E2
FF
F5
10
FF
04
EC
05
0F
07
12
13
22
09
01
F6
E5
00
F7
10
FE
0A
E4
F8
0C
0A
03
0B
13
FC
10
F6
02
04
01
11
05
0E
EE
FF
09
1C
04
1A
03
FB
0F
EE
16
15
FD
14
1A
00
E4
06
0D
10
0A
20
EF
FE
13
EA
22
01
01
28
11
01
F1
F6
F8
10
F9
16
EA
F7
15
EB
18
F2
FC
13
02
19
F6
FB
0B
08
03
1F
0D
04
03
EB
0F
EE
03
1E
E9
11
02
FE
11
FB
03
1D
FE
FE
09
F5
07
F8
02
15
F8
22
1B
06
0C
F3
F7
11
06
F8
01
F7
EB
05
FF
09
01
23
1A
00
FE
E3
ED
02
0F
FB
04
07
EB
08
ED
0E
11
23
18
03
04
EF
D6
F1
09
F9
0C
0B
F9
03
F9
08
10
0B
15
F6
F5
E2
E6
EE
FF
EE
05
01
02
FC
E2
0C
04
17
11
FE
FD
E3
E9
F7
07
04
12
15
FC
0E
E7
FD
15
03
00
04
FE
DD
F9
FB
04
F9
1F
0B
FD
0B
DF
05
0C
07
07
06
06
EA
EC
F7
07
E6
19
15
E7
1E
FB
FE
0C
FE
08
07
09
E8
FD
FD
02
CE
13
E7
DD
10
00
25
16
EE
05
0F
28
06
14
01
F3
DB
2C
E9
EB
14
F8
0E
F6
E3
04
0C
2E
EA
22
1C
E4
F6
0B
F9
F1
1B
03
14
F7
FA
FD
13
1A
F3
0C
05
E7
05
FD
FB
FD
0B
F6
F6
08
F7
FD
F8
FD
F9
FA
FE
00
0A
0B
12
09
06
01
F2
05
14
E4
F0
EE
E9
FB
00
F4
F8
1D
07
0A
14
F4
02
03
03
EF
00
FE
F5
EB
01
F3
EA
22
10
F7
24
F9
E7
0B
0B
F6
1F
07
F4
FE
FE
DC
EF
1A
03
EF
20
0E
FF
FD
FB
0F
13
04
EA
FA
11
F2
F4
13
FD
E0
16
1B
10
F1
01
0E
15
06
E8
FC
05
05
FA
0B
FA
E7
0A
11
16
EB
05
09
01
15
F1
19
0A
17
05
00
EF
F4
09
03
0F
F5
06
01
F2
0C
F7
FF
FE
20
05
03
E7
F0
FA
02
19
EA
09
F1
F1
0E
F1
0C
09
12
05
F4
E9
F3
02
ED
20
EB
FA
EB
02
0F
07
09
02
20
FD
E8
F6
E8
09
ED
1B
F7
E4
E9
F1
07
03
0D
0F
28
F8
F2
E5
DF
09
ED
1B
FD
02
F7
FF
15
13
05
0A
12
FD
07
E6
09
09
F2
20
00
07
ED
04
17
18
0E
0B
FF
F9
06
DE
1C
03
FE
1E
05
08
E8
F3
00
0A
0E
0A
F2
FF
07
EB
19
EB
07
25
0C
13
F8
EE
FF
0C
15
10
F5
FA
02
EC
0B
F2
04
20
F6
17
0A
F6
0C
FC
FD
22
01
08
08
EF
F5
FF
0A
0C
01
17
0F
FE
11
F3
F1
18
05
08
11
FB
F3
05
0C
09
FA
1F
19
FE
0E
EE
EB
00
08
FE
00
FC
EA
01
03
0F
0B
1C
15
04
01
F0
E0
0A
07
01
10
05
EE
0A
F2
F5
0C
12
0B
FD
05
F1
E4
FF
02
FC
FB
0F
F7
09
EE
04
04
0F
10
F7
07
F6
E2
F3
03
F9
0F
08
FA
11
DA
07
0B
07
12
FD
08
F3
F0
04
07
03
0C
13
00
0E
E7
08
13
FC
FD
F8
00
F0
F6
F9
F4
FC
0F
12
F6
15
E5
05
10
07
01
0C
0B
F6
F0
F4
06
F0
14
07
F8
04
F9
0A
1D
F4
03
03
17
09
02
F0
F8
CD
0D
F4
D8
22
FA
33
1B
E7
03
0F
29
DD
19
03
F0
D8
0B
EF
F6
21
07
03
09
F0
FB
0D
19
DF
1F
08
D3
EB
0B
F6
E5
18
09
FC
E7
E7
0A
0D
20
F5
12
07
F6
FA
F4
07
11
13
03
F6
0C
16
0A
0F
07
F9
02
FC
FC
07
0C
10
10
00
FC
01
FE
09
00
FD
EC
F8
F9
04
EC
00
07
12
00
FD
0E
FE
04
01
FA
08
EF
E6
EA
06
F8
F1
1A
1D
F4
17
EC
E0
1D
1B
F8
0B
FA
F7
02
00
EA
E6
21
12
F0
1C
02
F6
0A
F8
12
10
0C
ED
00
04
E9
FD
21
FC
DC
18
0A
F6
FC
FC
0D
1A
04
FD
04
0E
FE
0A
19
F5
E2
0C
12
FF
F4
06
FF
09
17
0E
10
1A
0A
03
10
EB
E1
FD
0D
15
F4
FE
FC
07
18
FA
16
0D
0E
00
0A
F3
E2
04
05
0E
EC
EF
F2
F0
0D
F8
0C
0B
17
0D
EF
E9
F3
0A
09
0E
F0
E7
F5
ED
10
02
14
F9
1F
09
F5
E4
E5
0D
02
19
EC
F3
F9
F2
1B
0E
18
03
13
FF
F6
E0
EF
04
09
10
E3
EE
F9
00
0C
13
0E
FB
17
F4
03
D1
EE
F1
03
26
FF
F9
EF
F6
09
12
1C
FF
10
F7
14
C8
07
F5
0C
1A
0D
03
FB
F6
0D
05
1E
0C
FD
F1
0A
E2
05
EF
14
19
0D
0B
FA
EA
0C
05
14
0B
F9
FE
06
F4
01
07
06
0F
05
11
02
F8
00
F8
F2
0C
03
FC
16
04
F3
02
09
10
02
21
09
05
09
F4
E8
12
0D
FD
0D
00
F0
14
0E
08
18
14
11
0B
07
FA
EF
FD
01
F6
05
0A
EF
11
FB
03
16
17
00
0F
04
F1
E3
0A
08
05
00
0D
F3
03
FD
FE
0E
04
00
05
FA
F1
F1
03
FF
04
0E
01
FC
01
D8
F6
10
02
05
F1
04
F5
F7
07
0A
FF
12
0F
00
0D
DE
FA
13
08
00
01
FA
F5
03
FD
F7
FB
16
09
FA
16
EB
FD
0B
FE
FA
02
0F
F2
00
05
09
F2
19
FD
EF
14
E4
07
13
F9
FF
03
15
05
FC
00
FD
F0
1F
00
D5
08
ED
0F
18
E7
05
0D
17
09
10
F6
F1
DB
13
F8
D6
1E
03
2B
29
F2
F2
05
26
F6
17
03
E8
E5
00
F1
09
00
0F
16
F7
FD
0B
09
06
DF
1C
02
F0
F3
19
EA
0D
0C
0C
1A
FD
01
FB
FB
0B
E9
1A
0D
E7
F7
F6
04
07
06
10
06
00
09
F6
F8
00
F8
0C
FF
FC
F4
F1
04
02
FF
EE
0E
02
FE
18
0E
07
EF
F6
F8
FE
07
FD
0F
03
F3
11
FE
05
05
16
0B
00
F7
F4
FA
FA
F4
22
17
06
0A
F1
E8
0B
13
FA
09
E4
DA
00
06
F4
F8
1C
02
E7
0C
F9
E8
07
08
12
0C
FA
E7
F8
05
FE
0F
22
FA
DF
11
00
EA
F3
01
FC
10
08
FF
F9
16
F8
06
17
04
E7
0E
0C
F9
FB
FB
07
12
08
01
F8
14
FC
07
13
ED
EF
11
04
01
06
F8
FE
FB
0C
FC
06
FD
03
06
12
F1
F6
14
0E
04
01
EB
FC
0B
00
0B
19
02
0C
03
0E
FB
EA
21
08
13
05
EF
F3
05
0B
0A
0C
F1
05
F8
F8
E4
EC
11
0B
13
FC
F2
EB
07
0A
0A
13
F5
1D
F6
FC
E6
E1
02
13
1E
F9
ED
FA
00
0B
FB
0F
E3
14
EF
0A
E7
F6
09
1C
1E
0B
FD
F7
F9
0E
04
0F
DE
15
F5
0F
EF
06
0B
23
1F
10
F8
04
ED
13
01
0F
EE
07
F7
00
F8
02
0D
10
12
15
0C
08
F2
0B
F3
FE
FF
04
F7
1A
08
F4
08
0D
0C
11
07
01
F7
0A
F8
F1
00
10
F9
0B
06
F9
13
FF
12
1D
06
F2
05
FF
F6
EB
15
06
FD
11
07
EA
1C
FD
05
15
0B
FD
FC
F1
03
E4
05
01
FC
10
03
EF
0F
FE
09
13
0A
00
0A
F5
FB
EF
0F
0D
09
06
09
02
12
F4
F7
10
08
F5
FF
03
FF
F6
09
F8
09
04
0E
F6
17
E8
FD
0F
FC
F8
01
04
0B
06
0A
08
FE
16
16
FE
14
DB
FF
10
FE
F2
F7
07
FC
0B
03
05
04
10
0B
EC
1B
F3
04
0C
EF
F4
02
08
06
FD
07
FD
0B
18
03
F4
1C
F8
F8
20
EC
02
03
0D
0E
09
03
06
F7
05
06
F6
0B
F0
F2
1C
E5
00
0A
12
0B
0B
0D
FC
D2
0D
F5
F8
17
07
0F
12
F1
F9
06
1F
FC
27
02
EA
EF
19
F0
01
0B
05
1D
F4
F9
FA
FC
0E
E7
21
15
E5
FA
0E
FC
0A
15
17
07
F6
F0
F5
03
03
F9
17
04
FA
02
06
F9
09
06
02
03
F5
FE
0A
F6
F7
05
04
01
FB
08
05
08
F0
FD
F9
FF
EE
F8
FE
03
06
ED
FD
F5
05
F8
1C
FD
F9
04
F4
03
0F
00
05
0C
FB
FE
01
FA
0B
EA
2F
09
FA
0E
F1
E7
0D
06
01
01
F2
D4
F2
0A
F0
F4
22
16
E9
0D
EA
F3
01
FC
08
0F
00
E2
F6
14
FD
FA
17
06
EA
10
08
E5
FD
FE
07
10
07
FD
ED
FA
F2
FF
0F
FC
EB
1E
08
F4
F9
EF
F7
FF
03
FA
ED
0B
F2
00
14
07
FA
14
FC
F6
00
F5
FA
03
1A
08
F7
F4
FC
05
07
04
EE
1F
05
05
0C
F2
FD
0F
0D
0E
11
F2
EE
00
15
0B
F2
1C
FE
06
16
F5
FA
06
07
0D
04
EC
05
F8
11
02
F8
20
0B
13
11
E5
FF
FB
FE
03
12
E0
14
F2
10
07
EB
14
11
1F
1A
EE
04
FC
02
02
0E
EB
0E
F2
08
05
EE
14
0C
26
0A
F1
04
08
07
FD
16
D3
20
FA
03
0F
FB
0C
18
1C
11
FD
05
0F
09
09
0C
E1
0E
EE
05
11
00
0B
0F
14
13
0D
00
08
FB
00
FD
E6
0C
07
0F
1B
00
14
08
0E
1D
01
FC
01
F4
07
F9
F5
12
FF
02
0B
F3
0B
F3
08
1F
06
03
F8
F9
FE
FA
0B
03
00
0C
18
00
11
F6
FF
1E
05
01
FC
F4
09
F7
0A
05
06
08
02
F9
18
02
01
2A
05
EF
FB
F5
08
03
0D
09
08
0D
08
02
18
DD
03
0F
05
F3
F5
03
08
0F
FE
02
0A
14
07
FC
16
D3
00
10
00
E3
FD
0B
10
0B
00
FC
FE
15
02
FA
11
E4
02
08
F2
EC
F8
01
0A
03
FB
FA
06
1A
06
F5
12
DF
F1
0C
E1
F0
FD
0E
18
FE
03
05
F7
0E
03
E5
03
ED
F0
14
EA
F3
01
16
11
0F
FE
FC
ED
03
FF
F3
05
F6
F9
10
F5
0B
FE
17
09
15
16
F4
E5
0C
EC
FC
22
FA
F2
17
FC
0A
03
19
00
2C
1A
F1
F4
FF
EF
FF
03
10
0E
0C
0C
EA
FA
07
E8
0D
02
F8
04
FE
10
08
F4
12
03
06
00
0B
07
F7
0C
F9
01
00
05
01
F5
03
05
02
0D
0D
FB
F5
EE
F2
0C
10
F8
00
07
FE
01
09
09
0A
08
F9
F7
F5
FD
01
FD
0B
FD
FE
FB
25
F9
EC
10
F9
08
F5
FD
F3
0D
0C
EA
F2
F9
E4
FA
27
0B
F2
1A
F6
F7
1E
F9
F5
01
FF
E8
01
05
E5
FB
10
10
F4
1B
F8
F1
17
F6
06
FB
F6
F1
01
03
00
02
0E
0D
07
13
02
F8
FB
EC
FE
FE
0A
06
05
FB
F1
FE
12
07
FF
25
07
F7
FC
EB
FB
08
07
FE
F7
EE
F8
FA
10
0C
02
1B
09
FA
0F
F4
FA
0C
08
0C
F6
EA
EF
FB
09
12
FB
11
FB
FD
0C
F4
F6
05
FC
FD
07
EF
02
03
08
0F
FA
09
05
10
18
FB
FD
FE
12
05
04
EC
FF
03
07
07
F5
0E
09
16
19
F5
03
03
08
FD
07
E5
0C
F7
14
11
F3
0A
06
15
03
EF
F9
09
FF
FD
0F
ED
16
F9
0C
1D
FD
09
15
13
0C
02
04
08
0C
02
FB
DF
1A
F8
04
14
F3
0C
0A
15
11
01
05
07
FD
12
FC
EF
20
FA
07
18
02
07
0D
18
1E
0A
F7
05
05
08
F9
F2
13
02
03
19
02
03
F2
0D
17
07
00
05
F6
07
F5
01
0D
06
06
16
03
0B
F7
FF
19
08
FF
FE
F8
10
06
FC
05
07
0A
0F
F9
09
F8
12
13
FB
F3
07
F8
07
00
04
FE
FB
0E
14
F3
0B
EA
0C
20
02
F0
F9
00
06
06
00
FD
04
1C
0F
FF
12
D7
FA
11
FD
E3
F3
00
07
06
FC
EB
07
16
11
FC
0B
D9
F9
0A
FA
ED
EE
01
07
12
07
F7
11
1E
04
EA
0C
E8
F4
0B
EC
00
F0
00
20
17
05
00
04
19
11
DD
0C
D9
FB
12
F6
F1
FC
0B
21
17
06
FB
F3
1D
FC
E6
04
E5
F9
FE
E6
FE
FC
13
11
1A
12
FF
F9
F5
F2
F2
0A
07
F5
00
F8
00
F8
0A
FC
23
28
EF
F4
0C
EA
04
0C
00
0A
0A
E3
0B
05
0A
FC
1B
0E
E3
F4
0D
FD
FC
0C
06
19
0B
FD
02
05
FA
01
F7
EC
10
07
01
01
FC
F8
FC
0A
F7
F8
02
F8
01
FC
FF
07
F8
02
F4
F7
04
0B
FC
05
08
01
F8
F9
EF
FD
09
04
04
FA
FB
FD
0F
FB
0E
03
04
09
F8
F5
F7
01
03
0B
04
F0
1C
0A
ED
01
05
09
F7
FE
EA
03
0A
E7
F5
FA
F1
EF
1C
06
F6
1A
FB
E4
03
FA
ED
F6
04
F2
FE
05
EB
F5
1E
12
FE
10
F8
EC
11
FB
04
05
F7
00
02
04
F2
EC
0C
12
1A
1A
F6
05
18
E1
05
F5
F1
F5
11
F0
EF
FF
07
0E
1B
11
02
02
F8
E3
00
00
0D
05
00
E7
F1
FE
0E
01
0B
16
FE
FE
F6
FA
FB
14
11
02
03
E2
FB
00
04
07
05
13
0A
02
01
EA
0D
FD
17
FF
07
EC
FF
FA
09
10
FF
0A
0D
09
FC
F7
FB
0A
0F
02
03
FC
04
FB
03
10
FF
0E
FF
07
F6
04
00
02
12
03
FE
F6
FD
11
10
12
F9
0D
FB
0D
00
FF
05
11
0B
0F
FF
F8
11
05
0A
13
F5
0B
FB
06
FD
06
02
10
09
0D
01
F2
11
08
08
19
00
05
FA
08
FC
F5
08
1A
10
15
FE
E8
18
0F
0E
1B
07
0F
FD
09
03
03
01
18
07
10
FE
FA
1B
0E
0C
11
0B
03
F5
0C
0F
FE
02
0E
F7
0B
F9
EE
0F
0B
0C
1C
0D
04
F6
FE
16
FC
FD
15
F6
09
FF
F3
07
04
18
0C
0A
0C
EC
01
0B
05
F5
04
FE
17
FA
02
01
03
18
12
F5
0D
F0
05
0E
EF
EE
FB
FA
0A
06
04
F4
F9
18
0D
FE
0B
DE
06
16
F5
F9
F7
0A
0D
FE
09
F9
03
10
0F
F5
08
E6
07
04
F8
ED
F0
FB
0E
16
06
EE
08
13
0B
F4
F5
EF
0D
07
00
EF
E4
0B
19
18
1A
F7
FD
16
05
DE
0B
01
FA
F7
EE
F5
F5
0A
11
0C
23
08
01
0F
08
E7
0B
07
EB
03
EC
FD
FE
0F
1F
16
14
06
F2
F9
E0
F4
03
F6
FA
FD
F0
13
03
1A
06
20
1E
FA
FD
FE
F4
F6
FF
EC
FA
07
FC
09
F4
0F
05
1F
02
ED
14
FC
FD
03
ED
13
0B
0E
EA
0D
FF
EC
0E
FD
F8
0B
0C
07
FE
07
02
06
00
F7
F6
03
F7
F8
02
FB
F6
0C
FD
05
FD
07
F9
FA
FA
09
03
F6
05
05
06
09
FD
00
FF
0A
FD
F6
02
07
FC
04
FA
06
FC
FD
F9
01
07
06
0A
14
12
F5
08
01
F8
0C
01
E4
F9
E5
FB
F6
05
EB
04
1E
11
F1
1E
07
DF
02
0E
E8
01
E8
F3
EC
10
F9
FE
0F
15
F7
0F
02
E2
22
16
04
0D
F1
FA
F4
02
E8
EF
11
09
0B
0E
14
F7
09
FE
10
F7
FB
F7
05
FD
EB
FA
0A
04
1B
17
01
04
0D
0C
05
00
F9
F5
11
F8
E7
EC
10
02
11
0B
F0
00
F4
06
0C
FF
F4
F2
01
F3
F7
0D
10
09
04
16
FF
01
F8
F5
0B
0C
01
06
FD
01
09
01
1D
0B
0B
18
FD
FF
FB
FB
0A
07
09
09
FA
F9
01
11
1C
19
04
0B
03
FA
F2
FF
06
04
0A
F8
05
FE
0D
0A
1A
1E
08
09
03
FE
F9
F9
0B
18
09
00
03
02
07
09
14
0F
02
18
F1
06
EE
EF
05
11
0C
12
F5
00
0B
0D
11
10
0D
0A
F6
00
F3
EF
FF
0E
FD
10
EF
F7
10
0C
14
19
09
08
E6
03
F3
F0
05
17
FC
16
05
F6
12
08
15
11
16
08
F1
08
05
FB
03
10
F8
0A
00
EE
06
FE
0C
0B
12
FD
E9
0D
01
F3
0C
10
01
19
F0
FF
0D
0D
17
1A
0F
02
F4
07
F9
01
F8
FD
F5
12
EE
F4
FC
FA
15
0C
09
10
E3
05
FD
07
EC
FC
FE
03
F0
05
F7
FF
1C
FC
EE
0E
E2
09
03
06
F0
FE
0E
0A
02
12
FA
09
19
03
F3
FC
E8
01
01
F8
F1
F0
0A
12
01
0E
F5
08
02
00
E3
07
EF
08
EC
01
F8
F4
15
16
10
1C
00
FA
03
FD
EE
02
F6
EF
F6
F5
FF
F9
1B
07
14
21
02
0A
FB
F8
EF
14
FA
E9
F6
FB
04
0A
1D
1E
13
23
0C
FB
06
F0
E6
07
08
EA
F2
F7
FD
01
1C
02
15
21
02
F1
0C
E5
F9
0C
FA
FA
01
F9
F9
F1
0A
0C
14
12
FF
F1
FC
0B
10
05
1B
F8
0F
F9
08
F8
ED
EF
FD
06
F3
08
FF
02
FE
FB
02
F6
01
FB
FA
F7
07
04
FD
FE
0A
09
F6
06
0B
00
FA
F9
04
08
FE
F8
03
01
FF
F7
F8
F9
08
04
F8
FE
03
04
08
03
00
00
02
F7
F5
01
08
FD
00
0B
FD
0B
06
01
12
01
F4
00
FA
F5
F4
F7
FB
17
10
1A
FC
16
15
E1
06
1C
07
12
F0
E7
EE
0C
F8
F8
00
25
10
07
03
D5
09
2D
07
20
ED
DE
FA
07
F9
FA
EC
17
22
07
13
E2
0B
27
1D
0E
E8
E7
05
08
01
FE
FC
25
1E
07
07
EA
F5
19
13
01
EC
E1
F6
FD
F8
00
01
1F
17
03
00
DF
F7
16
0F
15
F1
FC
F0
08
FC
11
FF
10
05
0E
FD
EF
FB
14
0C
10
01
FF
EC
00
F6
FF
10
16
00
09
F5
F3
02
07
05
0C
EE
10
F3
06
03
16
07
22
09
04
FD
F6
03
11
04
18
F1
07
E7
08
FE
0C
19
0B
0F
05
F2
F7
FC
0D
0E
0E
00
05
E5
05
F8
09
1E
13
FF
08
E8
F3
FB
F9
0D
19
F7
09
EF
FB
FD
09
1C
11
03
0A
F1
FB
01
07
16
27
FB
08
F0
02
FA
04
1A
12
06
05
EB
00
01
FB
0D
18
FE
0A
EE
F1
F9
05
0F
17
06
08
F6
F7
FD
05
09
12
08
12
EB
F9
F6
0E
10
08
FF
02
E6
00
FA
0E
FE
1D
FE
13
EC
F6
07
FD
03
0D
01
FF
F3
FE
09
0A
00
14
02
0F
F6
FE
F6
06
06
13
F9
FD
F3
F7
04
FF
FA
FF
10
11
FE
FC
F0
17
05
F0
FC
FB
EF
FF
06
F8
F8
FC
14
0F
F4
0C
06
14
F7
FE
09
F9
F8
F1
FB
0A
04
F8
0D
0C
03
12
08
FF
FE
FA
00
08
F0
EC
FA
0E
FB
FA
14
02
0C
28
03
0D
00
09
E7
10
EB
EA
06
0C
08
E5
13
00
14
17
FC
0E
FD
07
F5
0E
0B
EC
F8
00
F7
EF
1E
1B
0A
2A
0A
F1
08
09
E6
11
05
00
02
EE
FD
10
2B
15
27
08
F3
E6
19
F4
F0
0D
01
17
FC
F7
EA
F6
09
ED
0C
09
ED
F0
00
15
FD
14
FC
0D
08
F9
FE
0C
0E
EE
09
F2
EF
04
FD
F9
F7
F8
FD
01
F8
04
FE
04
F6
06
F7
09
08
F9
05
FD
F7
F9
08
FD
FD
FC
03
FB
08
02
FE
F8
05
04
03
09
F6
FA
01
03
03
06
FA
03
FD
08
FF
F9
03
0E
FF
09
F7
04
FA
FA
13
02
FD
F8
F7
00
F8
0A
09
FD
FE
0E
00
EC
FF
04
0C
02
1A
0C
06
FF
16
F6
05
F3
F9
18
10
FC
08
F1
FB
1C
16
14
EC
E4
10
05
03
04
E3
18
0D
0A
11
ED
F0
2F
0F
14
EF
F5
04
0B
05
09
EF
18
0E
06
03
DC
07
1A
FA
0E
FA
FC
FB
05
FE
02
EC
23
16
16
01
D9
FA
2E
00
17
F5
EB
FF
05
F2
F6
F0
28
20
0F
0E
D5
F1
28
05
13
F5
E9
F8
09
E3
FF
04
26
17
19
0E
DA
FB
26
12
1B
F1
FD
00
F9
DE
0B
0A
14
08
04
F9
E2
F9
23
09
18
02
01
FB
0C
F2
08
FF
1A
13
0F
FA
DA
0C
18
13
30
03
FB
F6
04
E3
F0
FC
0E
14
11
0F
DA
0B
1C
06
28
F8
F5
EF
02
EB
FC
02
17
02
0C
01
D7
06
17
0A
24
03
FD
F6
03
EC
FD
02
F8
0E
04
F9
DF
09
11
0D
2B
01
05
F0
00
F0
06
0A
03
01
F6
FB
EB
0C
15
0B
25
11
13
03
FD
F0
03
03
0B
FD
10
0F
E0
10
0D
14
27
17
09
F6
FA
FD
07
F9
04
02
FC
15
D6
16
16
0F
28
18
1A
FE
00
F1
0A
E7
07
03
05
FD
DE
16
12
16
10
1D
16
04
05
EE
11
F1
0B
08
15
03
DF
04
0C
09
1A
15
02
FF
08
04
19
DC
FA
05
1D
F7
DD
FF
12
00
07
11
11
0E
0E
04
0D
E0
04
08
0C
F3
E2
12
11
1B
05
13
0B
1A
14
02
0F
00
14
07
02
F9
DC
1F
0E
16
0B
06
10
0F
19
FF
07
02
15
EC
FE
05
E1
10
02
1B
FC
01
17
09
17
16
FA
00
06
FB
04
EE
F3
0C
FA
11
13
0F
1E
0C
00
02
EF
03
07
F6
15
FA
01
F6
FB
0C
01
13
06
0D
0C
F6
F7
02
06
FC
FE
F6
03
F5
F4
06
13
14
FE
0E
FD
01
00
FC
08
09
06
FD
08
FC
03
06
05
07
04
06
06
0A
06
0A
F6
FD
05
FC
FE
0B
F9
00
03
00
00
06
F7
F7
02
09
FB
00
0A
FC
00
FA
04
FD
00
FE
F8
FE
F9
00
05
FE
09
01
FC
FB
F6
02
F8
FC
F8
06
FD
FB
09
01
0D
F7
FC
F7
F0
05
F7
FC
06
FE
F4
0D
0C
0A
0E
08
0B
F7
00
F4
0C
12
EF
F5
14
EF
EA
09
05
F9
16
19
03
EC
F8
02
0C
0E
FD
F9
1C
F6
FB
05
F2
FC
06
0C
08
E8
F9
08
0F
0B
E7
F7
19
06
03
08
F7
0D
08
07
FF
D8
F6
1A
06
0C
ED
EE
1B
07
0A
23
F3
0C
0A
FE
FE
D5
F1
14
01
F5
E7
EF
1A
0A
1A
22
FB
07
03
FB
FF
D0
F2
16
00
06
DB
E8
29
05
1A
25
F7
12
08
F1
F6
E2
F6
19
0C
03
EC
F3
1E
15
11
2F
05
08
02
F7
FA
D9
0B
18
0A
07
DA
04
1D
0B
1E
19
0D
12
08
FD
02
EA
06
02
08
15
D3
F3
15
1E
10
25
10
16
0A
FF
FC
DF
01
16
04
0E
DB
F6
18
16
28
2B
FC
0B
0B
00
F7
C3
01
1D
16
1A
D1
F2
1F
11
1B
3F
08
12
0B
FE
F7
E0
09
15
FD
29
D4
0F
1F
20
24
2D
F6
17
01
F5
F9
DD
12
15
03
1E
D3
06
24
11
21
27
F5
06
F8
EE
FB
E2
F9
1C
16
16
CF
09
26
13
14
2B
00
15
F2
F4
FC
E8
FD
24
16
07
DF
FC
26
0E
25
23
02
0C
F2
F8
EF
ED
1B
26
0C
11
D3
10
10
28
26
25
EF
12
F4
FC
08
EA
11
09
18
FD
D2
11
14
12
0F
1F
F7
07
10
0B
06
EF
06
0B
03
FB
E4
07
1B
0B
17
18
02
0F
0C
EF
FF
F2
15
18
06
FC
F9
0A
11
23
08
10
FB
11
F7
F6
01
F4
01
01
0D
E7
F3
0C
04
FC
FD
11
13
FC
03
FC
17
F4
0A
09
01
FB
F6
F4
03
FD
01
04
02
FB
F0
14
F4
04
FE
0D
FE
06
F9
01
FE
FD
F8
03
09
FB
01
03
08
05
FE
08
01
FF
FD
03
FE
FF
07
F7
06
03
FE
FA
03
00
FA
03
F8
03
F8
F7
08
F8
F9
04
F9
05
0A
FD
F8
FD
FF
FF
F8
05
08
FB
F8
F8
05
08
06
04
FF
0A
07
00
F5
F8
05
F8
F7
04
FC
F9
03
FE
05
FD
FF
07
04
F8
04
04
04
01
09
02
0B
FC
03
02
04
04
09
FC
00
01
00
09
F8
F8
08
F5
FA
F8
F7
06
07
F9
06
07
F6
02
F7
05
07
EF
FD
FB
F9
0D
FF
08
F8
FD
FF
F3
F8
00
08
15
F4
EE
0D
08
0B
05
0A
02
01
FF
07
ED
EF
F6
FF
13
08
F8
00
03
08
11
0B
09
F8
16
00
F3
FE
F7
05
07
08
E9
FE
0E
0D
00
0D
16
EE
0F
00
F6
F8
F9
01
0A
0A
F3
F7
09
05
07
18
19
DC
16
FE
FB
F2
EF
FC
12
02
FF
FD
05
0F
FF
02
1C
F3
09
01
F4
F2
F5
05
13
F4
09
F5
16
13
13
1C
0D
F2
0F
07
F8
F3
EF
0D
FA
04
07
EF
0B
08
12
06
19
0E
03
FD
F3
03
F9
FF
0A
F8
09
02
05
FF
11
09
15
F9
09
FB
F1
ED
FB
01
1B
F0
01
01
10
05
0D
16
08
EF
1C
F3
E9
F7
E5
08
1C
08
02
F5
08
09
17
15
19
FF
13
04
ED
F6
EC
F3
0F
06
06
F5
05
13
0C
10
0F
FC
16
06
E8
F2
EF
FF
16
EA
F3
FB
0E
03
07
0C
15
F3
0B
FC
F1
F1
EC
02
09
F6
09
04
1D
14
10
14
20
EB
17
F9
E9
FC
F5
FA
0B
FA
00
F5
0F
0B
12
19
18
FB
0F
F6
F2
E7
EA
F7
21
F6
F8
F7
03
0C
09
1B
05
FB
04
F5
F6
FB
F4
F8
08
F9
FC
04
01
19
10
0B
11
ED
FB
02
F1
F8
E6
05
0F
05
F8
F7
0B
0E
0D
04
17
FA
03
FB
E9
F4
E5
F9
08
F0
03
09
20
11
0F
10
07
00
0B
F3
ED
ED
F2
F6
16
E7
02
0E
14
0F
0D
10
0B
F6
0C
FA
EF
FC
01
FD
FF
07
02
01
F6
FE
06
07
04
F7
F9
03
FE
FB
F6
F8
04
03
02
03
F9
FC
F9
05
07
02
04
F6
F7
00
F6
F7
04
FB
07
04
0B
FD
03
09
FE
03
FF
04
02
08
00
FF
08
FB
04
FA
F7
F9
08
F5
04
F7
05
01
F5
