2E
E3
B0
03
37
13
EB
DF
40
48
0C
09
4A
42
4A
3D
FB
D9
35
B6
5A
45
E8
23
A9
4A
FA
DB
7B
AD
BC
52
C8
FF
0D
BC
91
4A
08
1D
01
21
18
48
95
CC
D1
BD
02
EF
FC
14
5D
02
BA
7D
17
E0
BB
25
20
1D
27
BF
41
BE
4B
03
01
C1
B8
37
FD
FA
B1
3F
33
E9
DD
A9
AC
BA
EA
3B
2F
DE
27
40
D4
3E
27
B1
FE
DB
1E
44
9E
58
D2
1A
15
9D
25
1B
A2
1B
00
42
32
F8
F0
B2
54
DD
AA
FA
E0
09
1E
14
C1
FD
EA
B3
E5
2B
17
96
43
09
E0
22
3C
C4
C8
01
B7
4A
AE
F5
AB
2E
42
23
56
4A
B7
98
F4
42
4F
BC
E3
DD
18
0C
4B
E7
12
24
